#include "magic_wand_model_data.h"

// We need to keep the data array aligned on some architectures.
#ifdef __has_attribute
#define HAVE_ATTRIBUTE(x) __has_attribute(x)
#else
#define HAVE_ATTRIBUTE(x) 0
#endif
#if HAVE_ATTRIBUTE(aligned) || (defined(__GNUC__) && !defined(__clang__))
#define DATA_ALIGN_ATTRIBUTE __attribute__((aligned(4)))
#else
#define DATA_ALIGN_ATTRIBUTE
#endif

const unsigned char g_magic_wand_model_data[] DATA_ALIGN_ATTRIBUTE = {
  // Paste the data of the char array in `src/model.cc` here
  0x08, 0x00, 0x00, 0x00, 0x54, 0x46, 0x4c, 0x33, 0x62, 0xff, 0xff, 0xff,
  0x03, 0x00, 0x00, 0x00, 0x10, 0x00, 0x00, 0x00, 0x24, 0x00, 0x00, 0x00,
  0x78, 0x00, 0x00, 0x00, 0x24, 0x00, 0x00, 0x00, 0x05, 0x00, 0x00, 0x00,
  0x78, 0x05, 0x00, 0x00, 0xb0, 0x04, 0x00, 0x00, 0xe0, 0x02, 0x00, 0x00,
  0x60, 0x02, 0x00, 0x00, 0x54, 0x01, 0x00, 0x00, 0x01, 0x00, 0x00, 0x00,
  0x78, 0x00, 0x00, 0x00, 0x13, 0x00, 0x00, 0x00, 0x18, 0x30, 0x00, 0x00,
  0x14, 0x30, 0x00, 0x00, 0x20, 0x2f, 0x00, 0x00, 0xa8, 0x2e, 0x00, 0x00,
  0x3c, 0x2e, 0x00, 0x00, 0xec, 0x11, 0x00, 0x00, 0x98, 0x10, 0x00, 0x00,
  0xbc, 0x0e, 0x00, 0x00, 0x60, 0x06, 0x00, 0x00, 0xfc, 0x05, 0x00, 0x00,
  0x78, 0x05, 0x00, 0x00, 0xec, 0x2f, 0x00, 0x00, 0xe8, 0x2f, 0x00, 0x00,
  0xe4, 0x2f, 0x00, 0x00, 0xe0, 0x2f, 0x00, 0x00, 0xdc, 0x2f, 0x00, 0x00,
  0xd8, 0x2f, 0x00, 0x00, 0xd4, 0x2f, 0x00, 0x00, 0xd0, 0x2f, 0x00, 0x00,
  0x0f, 0x00, 0x00, 0x00, 0x4d, 0x4c, 0x49, 0x52, 0x20, 0x43, 0x6f, 0x6e,
  0x76, 0x65, 0x72, 0x74, 0x65, 0x64, 0x2e, 0x00, 0x00, 0x00, 0x0e, 0x00,
  0x18, 0x00, 0x04, 0x00, 0x08, 0x00, 0x0c, 0x00, 0x10, 0x00, 0x14, 0x00,
  0x0e, 0x00, 0x00, 0x00, 0x14, 0x00, 0x00, 0x00, 0x5c, 0x00, 0x00, 0x00,
  0x60, 0x00, 0x00, 0x00, 0x64, 0x00, 0x00, 0x00, 0x84, 0x00, 0x00, 0x00,
  0x12, 0x00, 0x00, 0x00, 0x48, 0x2f, 0x00, 0x00, 0xe4, 0x2e, 0x00, 0x00,
  0x3c, 0x2e, 0x00, 0x00, 0xd8, 0x2d, 0x00, 0x00, 0x70, 0x2d, 0x00, 0x00,
  0x1c, 0x11, 0x00, 0x00, 0xc0, 0x0f, 0x00, 0x00, 0xe4, 0x0d, 0x00, 0x00,
  0xa0, 0x05, 0x00, 0x00, 0x3c, 0x05, 0x00, 0x00, 0xb0, 0x04, 0x00, 0x00,
  0xe8, 0x03, 0x00, 0x00, 0x38, 0x03, 0x00, 0x00, 0xa4, 0x02, 0x00, 0x00,
  0x10, 0x02, 0x00, 0x00, 0x90, 0x01, 0x00, 0x00, 0xfc, 0x00, 0x00, 0x00,
  0x80, 0x00, 0x00, 0x00, 0x01, 0x00, 0x00, 0x00, 0x00, 0x00, 0x00, 0x00,
  0x01, 0x00, 0x00, 0x00, 0x11, 0x00, 0x00, 0x00, 0x08, 0x00, 0x00, 0x00,
  0x1c, 0x04, 0x00, 0x00, 0x58, 0x03, 0x00, 0x00, 0xc8, 0x02, 0x00, 0x00,
  0x24, 0x02, 0x00, 0x00, 0xac, 0x01, 0x00, 0x00, 0x10, 0x01, 0x00, 0x00,
  0x94, 0x00, 0x00, 0x00, 0x10, 0x00, 0x00, 0x00, 0x04, 0x00, 0x00, 0x00,
  0x6d, 0x61, 0x69, 0x6e, 0x00, 0x00, 0x00, 0x00, 0x8e, 0xff, 0xff, 0xff,
  0x00, 0x00, 0x00, 0x09, 0x04, 0x00, 0x00, 0x00, 0x1c, 0x00, 0x00, 0x00,
  0x10, 0x00, 0x00, 0x00, 0x04, 0x00, 0x00, 0x00, 0x0a, 0xd2, 0xff, 0xff,
  0x00, 0x00, 0x80, 0x3f, 0x01, 0x00, 0x00, 0x00, 0x11, 0x00, 0x00, 0x00,
  0x01, 0x00, 0x00, 0x00, 0x10, 0x00, 0x00, 0x00, 0xf6, 0xfb, 0xff, 0xff,
  0x00, 0x00, 0x00, 0x19, 0x01, 0x00, 0x00, 0x00, 0x8a, 0xd1, 0xff, 0xff,
  0x10, 0x00, 0x00, 0x00, 0x12, 0x00, 0x00, 0x00, 0x14, 0x00, 0x00, 0x00,
  0x20, 0x00, 0x00, 0x00, 0x02, 0x00, 0x00, 0x00, 0x01, 0x00, 0x00, 0x00,
  0x04, 0x00, 0x00, 0x00, 0x08, 0x00, 0x00, 0x00, 0x49, 0x64, 0x65, 0x6e,
  0x74, 0x69, 0x74, 0x79, 0x00, 0x00, 0x00, 0x00, 0xc4, 0xd1, 0xff, 0xff,
  0x00, 0x00, 0x0e, 0x00, 0x18, 0x00, 0x08, 0x00, 0x0c, 0x00, 0x10, 0x00,
  0x07, 0x00, 0x14, 0x00, 0x0e, 0x00, 0x00, 0x00, 0x00, 0x00, 0x00, 0x08,
  0x03, 0x00, 0x00, 0x00, 0x18, 0x00, 0x00, 0x00, 0x0c, 0x00, 0x00, 0x00,
  0x04, 0x00, 0x00, 0x00, 0x98, 0xd1, 0xff, 0xff, 0x01, 0x00, 0x00, 0x00,
  0x10, 0x00, 0x00, 0x00, 0x03, 0x00, 0x00, 0x00, 0x0f, 0x00, 0x00, 0x00,
  0x05, 0x00, 0x00, 0x00, 0x02, 0x00, 0x00, 0x00, 0x02, 0xd2, 0xff, 0xff,
  0x10, 0x00, 0x00, 0x00, 0x11, 0x00, 0x00, 0x00, 0x14, 0x00, 0x00, 0x00,
  0x30, 0x00, 0x00, 0x00, 0x02, 0x00, 0x00, 0x00, 0x01, 0x00, 0x00, 0x00,
  0x04, 0x00, 0x00, 0x00, 0x1a, 0x00, 0x00, 0x00, 0x73, 0x65, 0x71, 0x75,
  0x65, 0x6e, 0x74, 0x69, 0x61, 0x6c, 0x2f, 0x64, 0x65, 0x6e, 0x73, 0x65,
  0x5f, 0x31, 0x2f, 0x42, 0x69, 0x61, 0x73, 0x41, 0x64, 0x64, 0x00, 0x00,
  0xf4, 0xd1, 0xff, 0xff, 0xd6, 0xfd, 0xff, 0xff, 0x00, 0x00, 0x00, 0x08,
  0x03, 0x00, 0x00, 0x00, 0x24, 0x00, 0x00, 0x00, 0x18, 0x00, 0x00, 0x00,
  0x0c, 0x00, 0x00, 0x00, 0x00, 0x00, 0x06, 0x00, 0x08, 0x00, 0x07, 0x00,
  0x06, 0x00, 0x00, 0x00, 0x00, 0x00, 0x00, 0x01, 0x01, 0x00, 0x00, 0x00,
  0x0f, 0x00, 0x00, 0x00, 0x03, 0x00, 0x00, 0x00, 0x0e, 0x00, 0x00, 0x00,
  0x04, 0x00, 0x00, 0x00, 0x01, 0x00, 0x00, 0x00, 0xfe, 0xfc, 0xff, 0xff,
  0x00, 0x00, 0x00, 0x09, 0x01, 0x00, 0x00, 0x00, 0x92, 0xd2, 0xff, 0xff,
  0x10, 0x00, 0x00, 0x00, 0x10, 0x00, 0x00, 0x00, 0x14, 0x00, 0x00, 0x00,
  0x2c, 0x00, 0x00, 0x00, 0x02, 0x00, 0x00, 0x00, 0x01, 0x00, 0x00, 0x00,
  0x10, 0x00, 0x00, 0x00, 0x15, 0x00, 0x00, 0x00, 0x73, 0x65, 0x71, 0x75,
  0x65, 0x6e, 0x74, 0x69, 0x61, 0x6c, 0x2f, 0x64, 0x65, 0x6e, 0x73, 0x65,
  0x2f, 0x52, 0x65, 0x6c, 0x75, 0x00, 0x00, 0x00, 0xd8, 0xd2, 0xff, 0xff,
  0x00, 0x00, 0x0a, 0x00, 0x10, 0x00, 0x04, 0x00, 0x08, 0x00, 0x0c, 0x00,
  0x0a, 0x00, 0x00, 0x00, 0x02, 0x00, 0x00, 0x00, 0x10, 0x00, 0x00, 0x00,
  0x04, 0x00, 0x00, 0x00, 0x01, 0x00, 0x00, 0x00, 0x0e, 0x00, 0x00, 0x00,
  0x02, 0x00, 0x00, 0x00, 0x0d, 0x00, 0x00, 0x00, 0x03, 0x00, 0x00, 0x00,
  0x7a, 0xfd, 0xff, 0xff, 0x00, 0x00, 0x00, 0x16, 0x01, 0x00, 0x00, 0x00,
  0x0e, 0xd3, 0xff, 0xff, 0x10, 0x00, 0x00, 0x00, 0x0f, 0x00, 0x00, 0x00,
  0x14, 0x00, 0x00, 0x00, 0x30, 0x00, 0x00, 0x00, 0x02, 0x00, 0x00, 0x00,
  0x01, 0x00, 0x00, 0x00, 0x70, 0x00, 0x00, 0x00, 0x1a, 0x00, 0x00, 0x00,
  0x73, 0x65, 0x71, 0x75, 0x65, 0x6e, 0x74, 0x69, 0x61, 0x6c, 0x2f, 0x66,
  0x6c, 0x61, 0x74, 0x74, 0x65, 0x6e, 0x2f, 0x52, 0x65, 0x73, 0x68, 0x61,
  0x70, 0x65, 0x00, 0x00, 0x00, 0xd3, 0xff, 0xff, 0xe2, 0xfe, 0xff, 0xff,
  0x00, 0x00, 0x00, 0x05, 0x01, 0x00, 0x00, 0x00, 0x38, 0x00, 0x00, 0x00,
  0x2c, 0x00, 0x00, 0x00, 0x14, 0x00, 0x00, 0x00, 0x00, 0x00, 0x0e, 0x00,
  0x14, 0x00, 0x00, 0x00, 0x10, 0x00, 0x0c, 0x00, 0x08, 0x00, 0x04, 0x00,
  0x0e, 0x00, 0x00, 0x00, 0x03, 0x00, 0x00, 0x00, 0x01, 0x00, 0x00, 0x00,
  0x03, 0x00, 0x00, 0x00, 0x01, 0x00, 0x00, 0x00, 0x01, 0x00, 0x00, 0x00,
  0x0d, 0x00, 0x00, 0x00, 0x01, 0x00, 0x00, 0x00, 0x0c, 0x00, 0x00, 0x00,
  0x9e, 0xd3, 0xff, 0xff, 0x10, 0x00, 0x00, 0x00, 0x0e, 0x00, 0x00, 0x00,
  0x1c, 0x00, 0x00, 0x00, 0x40, 0x00, 0x00, 0x00, 0x04, 0x00, 0x00, 0x00,
  0x01, 0x00, 0x00, 0x00, 0x07, 0x00, 0x00, 0x00, 0x01, 0x00, 0x00, 0x00,
  0x10, 0x00, 0x00, 0x00, 0x22, 0x00, 0x00, 0x00, 0x73, 0x65, 0x71, 0x75,
  0x65, 0x6e, 0x74, 0x69, 0x61, 0x6c, 0x2f, 0x6d, 0x61, 0x78, 0x5f, 0x70,
  0x6f, 0x6f, 0x6c, 0x69, 0x6e, 0x67, 0x32, 0x64, 0x5f, 0x31, 0x2f, 0x4d,
  0x61, 0x78, 0x50, 0x6f, 0x6f, 0x6c, 0x00, 0x00, 0xa0, 0xd3, 0xff, 0xff,
  0xc2, 0xfe, 0xff, 0xff, 0x00, 0x00, 0x00, 0x01, 0x24, 0x00, 0x00, 0x00,
  0x18, 0x00, 0x00, 0x00, 0x04, 0x00, 0x00, 0x00, 0xb4, 0xfe, 0xff, 0xff,
  0x01, 0x00, 0x00, 0x00, 0x01, 0x00, 0x00, 0x00, 0x00, 0x00, 0x00, 0x01,
  0x01, 0x00, 0x00, 0x00, 0x0c, 0x00, 0x00, 0x00, 0x03, 0x00, 0x00, 0x00,
  0x0b, 0x00, 0x00, 0x00, 0x07, 0x00, 0x00, 0x00, 0x09, 0x00, 0x00, 0x00,
  0x2e, 0xd4, 0xff, 0xff, 0x10, 0x00, 0x00, 0x00, 0x0d, 0x00, 0x00, 0x00,
  0x1c, 0x00, 0x00, 0x00, 0x2c, 0x00, 0x00, 0x00, 0x04, 0x00, 0x00, 0x00,
  0x01, 0x00, 0x00, 0x00, 0x15, 0x00, 0x00, 0x00, 0x01, 0x00, 0x00, 0x00,
  0x10, 0x00, 0x00, 0x00, 0x0c, 0x00, 0x00, 0x00, 0x74, 0x66, 0x6c, 0x2e,
  0x63, 0x6f, 0x6e, 0x76, 0x5f, 0x32, 0x64, 0x31, 0x00, 0x00, 0x00, 0x00,
  0x74, 0xd4, 0xff, 0xff, 0x00, 0x00, 0x0e, 0x00, 0x1a, 0x00, 0x08, 0x00,
  0x0c, 0x00, 0x10, 0x00, 0x07, 0x00, 0x14, 0x00, 0x0e, 0x00, 0x00, 0x00,
  0x00, 0x00, 0x00, 0x05, 0x01, 0x00, 0x00, 0x00, 0x3c, 0x00, 0x00, 0x00,
  0x30, 0x00, 0x00, 0x00, 0x14, 0x00, 0x00, 0x00, 0x00, 0x00, 0x0e, 0x00,
  0x18, 0x00, 0x17, 0x00, 0x10, 0x00, 0x0c, 0x00, 0x08, 0x00, 0x04, 0x00,
  0x0e, 0x00, 0x00, 0x00, 0x03, 0x00, 0x00, 0x00, 0x03, 0x00, 0x00, 0x00,
  0x03, 0x00, 0x00, 0x00, 0x03, 0x00, 0x00, 0x00, 0x00, 0x00, 0x00, 0x01,
  0x01, 0x00, 0x00, 0x00, 0x0b, 0x00, 0x00, 0x00, 0x01, 0x00, 0x00, 0x00,
  0x0a, 0x00, 0x00, 0x00, 0x46, 0xff, 0xff, 0xff, 0x00, 0x00, 0x00, 0x11,
  0x01, 0x00, 0x00, 0x00, 0xda, 0xd4, 0xff, 0xff, 0x10, 0x00, 0x00, 0x00,
  0x0c, 0x00, 0x00, 0x00, 0x1c, 0x00, 0x00, 0x00, 0x40, 0x00, 0x00, 0x00,
  0x04, 0x00, 0x00, 0x00, 0x01, 0x00, 0x00, 0x00, 0x15, 0x00, 0x00, 0x00,
  0x01, 0x00, 0x00, 0x00, 0x08, 0x00, 0x00, 0x00, 0x20, 0x00, 0x00, 0x00,
  0x73, 0x65, 0x71, 0x75, 0x65, 0x6e, 0x74, 0x69, 0x61, 0x6c, 0x2f, 0x6d,
  0x61, 0x78, 0x5f, 0x70, 0x6f, 0x6f, 0x6c, 0x69, 0x6e, 0x67, 0x32, 0x64,
  0x2f, 0x4d, 0x61, 0x78, 0x50, 0x6f, 0x6f, 0x6c, 0x00, 0x00, 0x00, 0x00,
  0x34, 0xd5, 0xff, 0xff, 0x00, 0x00, 0x0e, 0x00, 0x14, 0x00, 0x00, 0x00,
  0x08, 0x00, 0x0c, 0x00, 0x07, 0x00, 0x10, 0x00, 0x0e, 0x00, 0x00, 0x00,
  0x00, 0x00, 0x00, 0x01, 0x30, 0x00, 0x00, 0x00, 0x24, 0x00, 0x00, 0x00,
  0x10, 0x00, 0x00, 0x00, 0x0c, 0x00, 0x10, 0x00, 0x00, 0x00, 0x04, 0x00,
  0x08, 0x00, 0x0f, 0x00, 0x0c, 0x00, 0x00, 0x00, 0x01, 0x00, 0x00, 0x00,
  0x01, 0x00, 0x00, 0x00, 0x00, 0x00, 0x00, 0x01, 0x01, 0x00, 0x00, 0x00,
  0x0a, 0x00, 0x00, 0x00, 0x03, 0x00, 0x00, 0x00, 0x00, 0x00, 0x00, 0x00,
  0x06, 0x00, 0x00, 0x00, 0x08, 0x00, 0x00, 0x00, 0x00, 0x00, 0x0a, 0x00,
  0x0c, 0x00, 0x07, 0x00, 0x00, 0x00, 0x08, 0x00, 0x0a, 0x00, 0x00, 0x00,
  0x00, 0x00, 0x00, 0x03, 0x01, 0x00, 0x00, 0x00, 0x9e, 0xd5, 0xff, 0xff,
  0x10, 0x00, 0x00, 0x00, 0x0b, 0x00, 0x00, 0x00, 0x1c, 0x00, 0x00, 0x00,
  0x28, 0x00, 0x00, 0x00, 0x04, 0x00, 0x00, 0x00, 0x01, 0x00, 0x00, 0x00,
  0x40, 0x00, 0x00, 0x00, 0x03, 0x00, 0x00, 0x00, 0x08, 0x00, 0x00, 0x00,
  0x0b, 0x00, 0x00, 0x00, 0x74, 0x66, 0x6c, 0x2e, 0x63, 0x6f, 0x6e, 0x76,
  0x5f, 0x32, 0x64, 0x00, 0x88, 0xd5, 0xff, 0xff, 0x7e, 0xd6, 0xff, 0xff,
  0x04, 0x00, 0x00, 0x00, 0x40, 0x00, 0x00, 0x00, 0x53, 0x07, 0xab, 0xbf,
  0x9e, 0x72, 0x04, 0xc0, 0xe3, 0x08, 0x60, 0x3f, 0x6c, 0x1f, 0x9a, 0x3f,
  0xbe, 0x74, 0x47, 0xbe, 0xb7, 0x18, 0xa1, 0xbf, 0x58, 0x74, 0x22, 0xbf,
  0x41, 0x32, 0x4a, 0x3d, 0x21, 0x16, 0x55, 0xbd, 0x5e, 0x90, 0xd2, 0xbf,
  0x91, 0xcb, 0xcb, 0xbe, 0x00, 0xe8, 0xe1, 0xbf, 0xdc, 0xbe, 0xb5, 0xbf,
  0x94, 0xa8, 0xe4, 0xbf, 0xa6, 0xc0, 0xa7, 0xbe, 0x0a, 0x01, 0xad, 0x3f,
  0x26, 0xd6, 0xff, 0xff, 0x10, 0x00, 0x00, 0x00, 0x0a, 0x00, 0x00, 0x00,
  0x10, 0x00, 0x00, 0x00, 0x20, 0x00, 0x00, 0x00, 0x01, 0x00, 0x00, 0x00,
  0x10, 0x00, 0x00, 0x00, 0x0d, 0x00, 0x00, 0x00, 0x73, 0x74, 0x64, 0x2e,
  0x63, 0x6f, 0x6e, 0x73, 0x74, 0x61, 0x6e, 0x74, 0x31, 0x00, 0x00, 0x00,
  0x08, 0xd6, 0xff, 0xff, 0xfe, 0xd6, 0xff, 0xff, 0x04, 0x00, 0x00, 0x00,
  0x20, 0x00, 0x00, 0x00, 0x94, 0x0e, 0x92, 0xbf, 0xdf, 0x37, 0x47, 0xc0,
  0x36, 0x6c, 0x88, 0xc0, 0x17, 0xcb, 0x22, 0xc0, 0x55, 0x5f, 0x9a, 0xbf,
  0xd9, 0xd4, 0x24, 0xc0, 0xf1, 0x01, 0x93, 0xbf, 0x64, 0xbc, 0x9d, 0x3e,
  0x86, 0xd6, 0xff, 0xff, 0x10, 0x00, 0x00, 0x00, 0x09, 0x00, 0x00, 0x00,
  0x10, 0x00, 0x00, 0x00, 0x20, 0x00, 0x00, 0x00, 0x01, 0x00, 0x00, 0x00,
  0x08, 0x00, 0x00, 0x00, 0x0c, 0x00, 0x00, 0x00, 0x73, 0x74, 0x64, 0x2e,
  0x63, 0x6f, 0x6e, 0x73, 0x74, 0x61, 0x6e, 0x74, 0x00, 0x00, 0x00, 0x00,
  0x68, 0xd6, 0xff, 0xff, 0x5e, 0xd7, 0xff, 0xff, 0x04, 0x00, 0x00, 0x00,
  0x00, 0x08, 0x00, 0x00, 0xa3, 0xd9, 0x0d, 0x3f, 0xeb, 0x93, 0x2c, 0x3d,
  0x73, 0x99, 0x78, 0x3e, 0x5f, 0x59, 0x19, 0x3e, 0x78, 0x7f, 0xa2, 0xbe,
  0x59, 0xec, 0x99, 0x3d, 0x99, 0xf9, 0x11, 0x3e, 0xdd, 0x9a, 0x41, 0xbd,
  0x49, 0x3a, 0x65, 0xbe, 0xf0, 0x40, 0x34, 0xbe, 0xb7, 0x28, 0x45, 0x3d,
  0xe0, 0xfc, 0x85, 0x3d, 0x1b, 0xc6, 0x31, 0xbe, 0x11, 0xf4, 0x40, 0xbb,
  0x09, 0xe8, 0x50, 0xbe, 0x7c, 0x27, 0xfe, 0xbe, 0xf6, 0x75, 0x95, 0xbe,
  0x87, 0x65, 0x18, 0xbe, 0xfa, 0xea, 0xbf, 0x3e, 0x22, 0xf6, 0x8a, 0xbd,
  0xef, 0xeb, 0x13, 0x3e, 0x19, 0xe8, 0xa6, 0xbd, 0x2a, 0xe3, 0xe0, 0xbe,
  0xa0, 0xae, 0xa8, 0xbe, 0x2c, 0x97, 0xb1, 0xbe, 0xbd, 0x07, 0xce, 0x3d,
  0x15, 0x3d, 0x40, 0x3d, 0x27, 0x50, 0x22, 0xbe, 0xb5, 0x26, 0xc4, 0x3e,
  0xf4, 0x0a, 0x15, 0xbe, 0x00, 0xf3, 0xcf, 0xbe, 0xf7, 0x39, 0xcc, 0x3c,
  0x89, 0x84, 0x15, 0xbe, 0x85, 0xf5, 0x29, 0x3e, 0xf8, 0x88, 0x97, 0xbe,
  0x4d, 0xeb, 0xaa, 0xbd, 0x5b, 0x6f, 0x0e, 0xbe, 0x44, 0x35, 0x04, 0xbe,
  0xda, 0x2d, 0x8d, 0x3d, 0xfa, 0xb0, 0x9b, 0xbc, 0xc1, 0x51, 0x97, 0x3c,
  0xee, 0xa7, 0xef, 0x3e, 0x15, 0x43, 0x0a, 0x3e, 0x0c, 0x29, 0x48, 0xbd,
  0x6f, 0xf3, 0xd1, 0xbe, 0xbc, 0x44, 0x5d, 0xbc, 0xec, 0x3a, 0x13, 0x3d,
  0x7e, 0x22, 0xce, 0xbd, 0x26, 0x51, 0x20, 0x3e, 0x45, 0xd7, 0x33, 0x3e,
  0x3d, 0x67, 0x92, 0x3e, 0xd0, 0x84, 0x41, 0x3d, 0xf5, 0x23, 0x73, 0xbe,
  0x15, 0x94, 0x23, 0x3c, 0x01, 0x7e, 0xe8, 0x3c, 0x3f, 0x42, 0xdd, 0xbc,
  0x4d, 0x19, 0x01, 0xbe, 0x75, 0x44, 0x28, 0xbf, 0x8b, 0x79, 0x71, 0x3e,
  0x98, 0x2d, 0xa1, 0xbb, 0x9d, 0x16, 0x2f, 0xbe, 0x5f, 0xbc, 0x33, 0xbd,
  0x3b, 0xf1, 0xb9, 0xbe, 0x08, 0xd8, 0x85, 0xbe, 0x80, 0xa4, 0xc6, 0xbe,
  0x93, 0xea, 0xa1, 0xbe, 0xd7, 0xa1, 0x07, 0xbd, 0x20, 0xa9, 0x0e, 0x3d,
  0xbb, 0xff, 0x3a, 0x3d, 0x85, 0xef, 0x13, 0xbf, 0x91, 0x69, 0x73, 0xbe,
  0xff, 0x40, 0x8b, 0xbe, 0xbd, 0x1b, 0x02, 0xbe, 0xbb, 0x03, 0x0e, 0xbf,
  0x58, 0xdd, 0x18, 0xbe, 0x13, 0x76, 0x82, 0x3c, 0x9d, 0xad, 0xfc, 0x3e,
  0x5b, 0x41, 0xd6, 0xbe, 0xee, 0x47, 0x12, 0x3d, 0x44, 0x83, 0x6b, 0xbe,
  0x06, 0x8f, 0xb5, 0x3d, 0x8d, 0x20, 0x36, 0xbd, 0x8f, 0x50, 0x91, 0x3e,
  0x31, 0x36, 0xc8, 0xbd, 0x42, 0x05, 0xac, 0xbe, 0x94, 0x3c, 0xae, 0xbe,
  0xea, 0x80, 0x63, 0xbd, 0xde, 0x44, 0xa2, 0xbd, 0xa2, 0x4d, 0xc8, 0x3d,
  0xd6, 0x39, 0x5e, 0xbe, 0xc2, 0xb8, 0xf8, 0x3d, 0xbf, 0x19, 0x40, 0x3e,
  0x2f, 0x9d, 0x20, 0xbe, 0x39, 0x86, 0x50, 0xbe, 0xbb, 0x22, 0xf0, 0xbc,
  0x01, 0x7d, 0x8e, 0xbc, 0x23, 0xb6, 0xcd, 0xbd, 0x92, 0x8b, 0x9d, 0xbe,
  0x07, 0xdb, 0x4a, 0xbe, 0x16, 0x3b, 0xc6, 0xbd, 0x3a, 0x01, 0xb5, 0xba,
  0x23, 0x44, 0x3c, 0xbe, 0x3b, 0x4c, 0x29, 0xbe, 0x3c, 0x74, 0x95, 0xbd,
  0x33, 0x6d, 0x8b, 0xbd, 0x38, 0xfb, 0x24, 0xbe, 0xe6, 0x8d, 0x40, 0xbe,
  0x8a, 0xda, 0xd5, 0xbd, 0xa5, 0x99, 0x83, 0xbd, 0xbf, 0x71, 0x21, 0xbe,
  0xc8, 0x5a, 0xf4, 0xbd, 0x58, 0xdb, 0xd3, 0xbc, 0x3d, 0xc7, 0x8a, 0xbb,
  0xc0, 0x5d, 0x7e, 0x3e, 0x44, 0x0a, 0x52, 0x3d, 0x47, 0x43, 0xa5, 0xbd,
  0x28, 0x35, 0xcd, 0x3d, 0xe4, 0x4e, 0xa9, 0xbd, 0x5a, 0x33, 0xbc, 0x3c,
  0x37, 0x14, 0x98, 0xbc, 0xbf, 0xce, 0xf3, 0x3c, 0x3c, 0x4a, 0x3f, 0x3e,
  0x4b, 0xf8, 0x38, 0x3e, 0xd7, 0xce, 0x0e, 0x3e, 0x83, 0x3c, 0x3d, 0xbe,
  0x2a, 0xe6, 0x5d, 0x3e, 0xed, 0xfc, 0x73, 0x3e, 0xe1, 0x81, 0xaa, 0x3c,
  0xe9, 0x98, 0x6a, 0xbe, 0x25, 0x32, 0x32, 0xbe, 0x40, 0xf2, 0xe1, 0xbd,
  0x7d, 0x58, 0x9e, 0xbc, 0x64, 0x93, 0xa0, 0x3d, 0x61, 0xfe, 0xe4, 0xbd,
  0xb7, 0xbc, 0x70, 0xbe, 0xd9, 0x62, 0x29, 0xbe, 0x8c, 0x26, 0x14, 0xbe,
  0xbd, 0xbe, 0x61, 0x3b, 0x29, 0x77, 0xad, 0xbe, 0x89, 0x0a, 0x22, 0xbe,
  0x33, 0x72, 0x46, 0xbd, 0xc9, 0xb4, 0x25, 0x3a, 0xea, 0xc6, 0x7d, 0xbe,
  0xef, 0x0c, 0x7e, 0xbe, 0xbb, 0x6c, 0x83, 0xbe, 0x3f, 0xe7, 0x75, 0xbe,
  0x52, 0x97, 0xc6, 0xbc, 0x0e, 0x30, 0xde, 0xbc, 0x0e, 0xac, 0xb3, 0x3d,
  0x89, 0x5b, 0xcb, 0xbd, 0x9d, 0x98, 0x7b, 0xbe, 0x4e, 0x94, 0x38, 0xbe,
  0xf1, 0xbb, 0x3e, 0x3d, 0x6b, 0x2c, 0x87, 0x3d, 0x97, 0x5d, 0xd9, 0x3d,
  0xfa, 0x0a, 0x81, 0xbe, 0x09, 0xe7, 0x1a, 0xbd, 0x48, 0x48, 0x51, 0xbe,
  0xa6, 0x78, 0x9d, 0xbd, 0xa8, 0x13, 0x7f, 0xbe, 0xee, 0xf2, 0xd4, 0xbe,
  0x14, 0x93, 0xff, 0x3d, 0x7a, 0x4e, 0xe9, 0xbc, 0xfe, 0x58, 0x01, 0xbf,
  0x8a, 0xca, 0x4b, 0x3d, 0xdf, 0x30, 0x97, 0x3d, 0x80, 0x34, 0x19, 0x3e,
  0x45, 0x5c, 0xb4, 0x3e, 0x9f, 0x7a, 0x57, 0xbe, 0xce, 0xba, 0x8f, 0x3e,
  0xc4, 0xf2, 0x60, 0xbe, 0xc7, 0x10, 0x67, 0xbd, 0x25, 0x0c, 0x4c, 0x3e,
  0x38, 0xfb, 0x64, 0x3c, 0x88, 0x8c, 0x73, 0xbd, 0xe0, 0xc3, 0xf6, 0xbe,
  0x7d, 0x1c, 0xc0, 0xbd, 0xab, 0x16, 0x43, 0x3c, 0x1c, 0xeb, 0x19, 0x3e,
  0x7b, 0x43, 0xca, 0x3c, 0x7d, 0x6f, 0x48, 0xbe, 0x39, 0x34, 0x5a, 0xbe,
  0xb4, 0x39, 0xc1, 0x3d, 0xca, 0x3c, 0xc0, 0xbe, 0xd0, 0xbd, 0xae, 0x3d,
  0x29, 0x5c, 0x50, 0xbf, 0x51, 0x60, 0x74, 0x3e, 0xa3, 0xc7, 0x2d, 0x3d,
  0x68, 0x77, 0x08, 0xbf, 0x8d, 0xcb, 0x29, 0xbe, 0x16, 0x19, 0x97, 0xbd,
  0x9e, 0x96, 0x77, 0xbe, 0x79, 0xb4, 0x25, 0xbe, 0xb3, 0x3a, 0x7f, 0x3e,
  0x62, 0x71, 0x58, 0x3d, 0x0c, 0x53, 0xdf, 0xbd, 0x90, 0xa9, 0xa8, 0x3e,
  0x3a, 0xd8, 0xb6, 0x3d, 0x68, 0x14, 0xa8, 0x3c, 0x9e, 0x1d, 0x61, 0xbe,
  0x4e, 0xd6, 0xb0, 0xbc, 0xa7, 0xe9, 0x57, 0x3d, 0x47, 0xcd, 0xac, 0x3d,
  0x6b, 0x70, 0x07, 0xbe, 0xd7, 0xdc, 0x83, 0x3e, 0x7e, 0x4e, 0x2d, 0xbe,
  0xbc, 0x69, 0x81, 0xbd, 0x11, 0x2c, 0x8e, 0xbe, 0xc2, 0xf4, 0xea, 0x3d,
  0xba, 0x36, 0xbd, 0xbd, 0xbb, 0x22, 0xa9, 0x3c, 0x48, 0x1f, 0x8c, 0xbe,
  0xbc, 0xc5, 0x15, 0x3e, 0x2d, 0xb6, 0x84, 0xbe, 0x70, 0x52, 0xeb, 0x3e,
  0xae, 0x90, 0x77, 0xbe, 0x39, 0x80, 0x77, 0xbd, 0xe7, 0x24, 0xf9, 0x3d,
  0x3f, 0xe6, 0x83, 0x3e, 0xd8, 0x66, 0x92, 0xbe, 0xb7, 0x75, 0x98, 0x3e,
  0x76, 0x17, 0x3d, 0xbd, 0x10, 0x7d, 0x0a, 0x3d, 0x1a, 0xb7, 0x62, 0xbe,
  0x8a, 0x57, 0x30, 0xbd, 0xcb, 0xcb, 0xaa, 0xbd, 0x50, 0x9b, 0x8c, 0xbb,
  0x62, 0xf6, 0xb2, 0xbd, 0xb6, 0xa5, 0xaf, 0x3c, 0x01, 0x3e, 0x9e, 0xbd,
  0xc5, 0xe4, 0xb9, 0xbd, 0x3d, 0x29, 0xc0, 0xbc, 0x2c, 0xa6, 0x76, 0xbd,
  0x56, 0x69, 0x93, 0x3d, 0xaa, 0xaf, 0x5d, 0x3c, 0xa1, 0xc2, 0xfd, 0x3d,
  0xbc, 0x70, 0x75, 0xbd, 0xba, 0x7b, 0x5b, 0x3d, 0x4a, 0x35, 0xbb, 0xbc,
  0x0c, 0x5f, 0xa7, 0xbd, 0x0d, 0x9c, 0xaf, 0x3d, 0xb0, 0x1a, 0xaf, 0x3d,
  0x2c, 0x99, 0x7a, 0x3e, 0xb3, 0x51, 0x55, 0x3e, 0xac, 0xc9, 0x21, 0xbe,
  0x3c, 0xf3, 0x82, 0xbd, 0x06, 0x12, 0x63, 0xbe, 0x01, 0xff, 0x8e, 0x3d,
  0xbc, 0x83, 0xae, 0x3d, 0x4a, 0x3a, 0xc5, 0xbc, 0x36, 0x52, 0xad, 0xbc,
  0xfe, 0x47, 0x1a, 0xbb, 0xac, 0x3d, 0x95, 0x3d, 0xe7, 0x80, 0x0b, 0x3e,
  0x66, 0xa5, 0xa7, 0x3e, 0x8d, 0xf0, 0x03, 0x3e, 0x8f, 0x2b, 0x87, 0xbe,
  0x12, 0x37, 0xf8, 0x3e, 0xfb, 0xec, 0x0e, 0xbe, 0x85, 0x2e, 0x33, 0xbe,
  0x30, 0xf1, 0x2a, 0x3e, 0xf2, 0x48, 0xce, 0x3c, 0x3a, 0x9e, 0x2c, 0xbe,
  0x23, 0x5a, 0xdc, 0x3d, 0x9d, 0x9d, 0x83, 0xbe, 0x81, 0xe9, 0x96, 0xbe,
  0xfc, 0xe8, 0xf2, 0xbd, 0x47, 0xea, 0x8b, 0xbd, 0x99, 0xec, 0x5f, 0xbd,
  0xc1, 0x6f, 0x64, 0xbc, 0x63, 0x3d, 0x0f, 0x3e, 0x11, 0x84, 0x92, 0xbc,
  0xcc, 0xd6, 0x59, 0xbe, 0x9f, 0xfd, 0x86, 0x3c, 0x59, 0xb3, 0x19, 0x3e,
  0xdb, 0x01, 0x45, 0x3e, 0xa7, 0x24, 0x74, 0xbd, 0x5f, 0x52, 0xcb, 0x3c,
  0x51, 0xca, 0xb0, 0xbe, 0x98, 0x94, 0x0a, 0x3d, 0xc5, 0xbe, 0x1b, 0xbe,
  0x8f, 0xeb, 0xb5, 0x3b, 0xb9, 0x44, 0xee, 0x3d, 0xd4, 0x38, 0x27, 0xbd,
  0xb7, 0x78, 0x64, 0xbd, 0x4c, 0x58, 0x4b, 0x3e, 0xa8, 0x62, 0x91, 0x3e,
  0x95, 0xb7, 0xa9, 0xbc, 0x0a, 0x38, 0xba, 0xbc, 0xd2, 0x02, 0xe2, 0xbe,
  0x4a, 0xd0, 0xe2, 0x3e, 0x62, 0xd3, 0x09, 0xbf, 0x63, 0x1d, 0x17, 0xbd,
  0x84, 0xba, 0x9a, 0xbc, 0xfd, 0x5e, 0x24, 0xbf, 0xd6, 0x2e, 0x39, 0x3c,
  0xdf, 0xef, 0x8b, 0xbe, 0x99, 0x38, 0xcb, 0x3e, 0xef, 0x21, 0x07, 0xbc,
  0xd6, 0x4b, 0x57, 0xbf, 0xfa, 0x11, 0xd4, 0xbd, 0x67, 0x88, 0x7f, 0xbd,
  0x98, 0x97, 0x8d, 0xbe, 0xbb, 0x09, 0x0b, 0x3d, 0x24, 0xc3, 0x89, 0xbe,
  0xb8, 0xe1, 0x45, 0x3d, 0x66, 0xfb, 0x11, 0xbe, 0x50, 0x35, 0x1e, 0xbe,
  0x88, 0xd5, 0xf1, 0x3b, 0xc8, 0xfd, 0xea, 0xbc, 0xfc, 0x1a, 0x6e, 0x3e,
  0xed, 0xb1, 0x09, 0xbc, 0xa0, 0xb4, 0x04, 0xbd, 0x0b, 0x23, 0x00, 0x3e,
  0xbb, 0x23, 0xa8, 0xbd, 0x1c, 0x61, 0x02, 0x3e, 0xc2, 0x4e, 0x0a, 0x3c,
  0x2c, 0x8b, 0xad, 0xbd, 0x1f, 0x14, 0x0c, 0x3e, 0x94, 0x94, 0xc1, 0xbc,
  0x13, 0xcc, 0xad, 0xbc, 0x32, 0xee, 0xfd, 0x3d, 0xbd, 0x24, 0xd8, 0x3e,
  0xa9, 0x77, 0xa2, 0xbe, 0xf8, 0xb3, 0x35, 0xbd, 0xaa, 0x7d, 0xb7, 0xbe,
  0x10, 0x7d, 0x63, 0x3c, 0x86, 0x2d, 0xfd, 0xbd, 0x95, 0xfb, 0x30, 0xbd,
  0x1e, 0x91, 0x6e, 0xbc, 0xe3, 0x28, 0x61, 0x3e, 0x3c, 0x0a, 0xc0, 0xbe,
  0x82, 0x9a, 0x9c, 0x3e, 0x00, 0x9f, 0x9a, 0xbe, 0xa0, 0x90, 0x5f, 0x3d,
  0xdb, 0x34, 0xb8, 0x3e, 0x4a, 0x5e, 0x78, 0xbd, 0x05, 0x34, 0x85, 0x3d,
  0xa1, 0xef, 0x44, 0x3e, 0x97, 0x0c, 0x18, 0xbe, 0x3a, 0x8f, 0x9d, 0x3b,
  0x3c, 0x4c, 0x8f, 0xbe, 0x40, 0x09, 0x24, 0x3e, 0x0c, 0x5d, 0xe2, 0xbd,
  0xe0, 0xbf, 0x06, 0x3d, 0x7d, 0x4a, 0x3b, 0x3c, 0x1a, 0x16, 0x55, 0x3d,
  0x5d, 0xb2, 0xfe, 0xbc, 0x0e, 0x1a, 0xd2, 0x3c, 0x72, 0xbf, 0xa2, 0xbe,
  0x82, 0xc5, 0x51, 0x3e, 0x26, 0x61, 0x5c, 0xbd, 0x7f, 0xd0, 0x4b, 0xbe,
  0x5b, 0x63, 0xa9, 0x3e, 0xac, 0xe5, 0x09, 0x3f, 0xb6, 0x87, 0x06, 0xbf,
  0x90, 0x8b, 0x8b, 0xbd, 0xad, 0x26, 0x17, 0xbd, 0x2f, 0x4b, 0x6d, 0xbe,
  0x30, 0xa3, 0x0f, 0x3e, 0x7c, 0x16, 0x88, 0xbe, 0xdc, 0x4d, 0xf3, 0x3d,
  0x88, 0xc2, 0x8b, 0x3d, 0xf6, 0x40, 0xb2, 0xbe, 0xc3, 0xcc, 0x83, 0xbd,
  0xfe, 0x8a, 0x9e, 0x3c, 0x6b, 0x43, 0xcc, 0x3d, 0xcf, 0x16, 0x1d, 0x3c,
  0xb4, 0xa2, 0xe0, 0xbd, 0x29, 0x16, 0x93, 0xbd, 0xc7, 0xf5, 0x4d, 0xbe,
  0xf2, 0xe1, 0xbc, 0xbc, 0x41, 0x2e, 0xfc, 0x3d, 0x16, 0x3f, 0x4d, 0xbd,
  0x52, 0x2e, 0x67, 0x3e, 0x0d, 0xe5, 0x84, 0xbd, 0x54, 0xb8, 0x43, 0xbc,
  0x55, 0x16, 0xa7, 0xbe, 0x12, 0x24, 0x23, 0x3c, 0x40, 0xab, 0xd2, 0x3d,
  0x63, 0x2c, 0x8a, 0xbe, 0x33, 0x92, 0x17, 0xbe, 0x95, 0xba, 0x76, 0xbe,
  0x3a, 0x57, 0x81, 0xbd, 0xfb, 0xa8, 0x98, 0x3e, 0xa9, 0x46, 0x16, 0xbe,
  0xc1, 0xe8, 0x11, 0x3f, 0x2e, 0x97, 0x55, 0x3d, 0x34, 0xaf, 0x6a, 0x3c,
  0x37, 0x55, 0xd6, 0xbc, 0x6c, 0x32, 0x29, 0x3c, 0x78, 0x5b, 0xa0, 0xbd,
  0x23, 0xb4, 0x8f, 0xbd, 0x42, 0xbc, 0x84, 0x3e, 0x68, 0xac, 0x79, 0x3d,
  0xdd, 0x24, 0x95, 0xbc, 0x0f, 0x45, 0x1d, 0xbe, 0x8c, 0x27, 0x8c, 0x3d,
  0x56, 0xbe, 0xde, 0xbe, 0xec, 0x6f, 0x3f, 0xbd, 0xcc, 0x3b, 0xde, 0xbd,
  0xa9, 0x7c, 0xf5, 0xbd, 0x2d, 0x58, 0x7c, 0xbc, 0xd5, 0xbf, 0xaa, 0xbc,
  0xb9, 0x48, 0x49, 0xba, 0x9b, 0x50, 0xef, 0xbc, 0xc2, 0xb6, 0x97, 0xbe,
  0x93, 0xc1, 0x4f, 0x3b, 0x5c, 0x8c, 0xa3, 0xbe, 0xb9, 0x12, 0x23, 0xbb,
  0x57, 0xb2, 0xdb, 0xbd, 0x5e, 0x6a, 0xe8, 0xbd, 0x89, 0x43, 0x97, 0x3d,
  0x26, 0x03, 0x84, 0xbd, 0x39, 0x9a, 0xbd, 0xbd, 0x91, 0xd1, 0x3d, 0x3c,
  0x48, 0x44, 0x2d, 0xbe, 0x97, 0x9f, 0xa9, 0xbd, 0x2b, 0x6d, 0x0c, 0xbf,
  0x21, 0x8a, 0x85, 0xbd, 0x0c, 0x21, 0x9d, 0xbe, 0x73, 0x1c, 0xd4, 0x3c,
  0x70, 0x20, 0x28, 0xbe, 0x90, 0x41, 0x01, 0xbf, 0xf3, 0x25, 0x3e, 0xbe,
  0x8b, 0x9b, 0xcc, 0xbd, 0x6a, 0x0b, 0x24, 0x3e, 0xc4, 0x7b, 0xb1, 0x3d,
  0xd6, 0xe2, 0x37, 0xbe, 0x70, 0xe4, 0xce, 0xbc, 0xf7, 0x41, 0x0a, 0x3e,
  0x73, 0xae, 0xed, 0xbe, 0x40, 0x1c, 0x29, 0x3d, 0x5d, 0x6a, 0xe9, 0x3d,
  0x44, 0x0b, 0x26, 0x3f, 0x42, 0xf2, 0xe9, 0xbc, 0x71, 0xc5, 0xc8, 0x3e,
  0x81, 0xe3, 0xe8, 0x3d, 0x37, 0x4b, 0x16, 0xbe, 0x41, 0x40, 0x6f, 0xbe,
  0x97, 0x11, 0xac, 0x3d, 0xd5, 0x78, 0x4e, 0x3c, 0x4d, 0xb9, 0x26, 0xbe,
  0x76, 0xa5, 0x0e, 0xbe, 0x62, 0xe7, 0x01, 0x3f, 0xb0, 0xc6, 0x80, 0xbb,
  0x24, 0xea, 0x83, 0xbd, 0x10, 0x7c, 0x3b, 0xbe, 0x5d, 0x53, 0x1c, 0xbd,
  0x3d, 0xb5, 0xeb, 0xbe, 0x1f, 0xb3, 0x93, 0xbe, 0x12, 0x7f, 0xcc, 0x3d,
  0x09, 0xd9, 0x0d, 0xbf, 0xda, 0x73, 0x37, 0xbd, 0xfd, 0x3e, 0x29, 0xbe,
  0x13, 0xe4, 0x05, 0xbe, 0xa8, 0x81, 0x27, 0x3d, 0x68, 0x4a, 0xc9, 0x3d,
  0x72, 0x34, 0x7b, 0x3e, 0x7d, 0x6d, 0x75, 0x3d, 0x7d, 0x4c, 0x31, 0x3d,
  0x55, 0x27, 0xad, 0x3e, 0x68, 0x92, 0xd7, 0x3c, 0xde, 0x7a, 0xc1, 0xbd,
  0x48, 0x1d, 0xe9, 0xbd, 0x4f, 0x23, 0xf4, 0xbd, 0x4d, 0x6f, 0xd3, 0xbd,
  0x6e, 0x07, 0x8f, 0xbd, 0x0a, 0x25, 0x4e, 0xbe, 0x43, 0x24, 0x35, 0xbd,
  0xb2, 0xd9, 0x0d, 0x3d, 0x09, 0x53, 0x3d, 0xbe, 0x24, 0xba, 0xdb, 0xbd,
  0x66, 0x68, 0x31, 0x3e, 0xc0, 0x94, 0x77, 0x3e, 0xea, 0x00, 0x53, 0x3e,
  0x1f, 0xe9, 0x26, 0xbe, 0xa7, 0xd1, 0x7f, 0x3d, 0xeb, 0xc8, 0x18, 0x3d,
  0xd2, 0x67, 0xa2, 0xbd, 0xf7, 0x9f, 0xc5, 0xbd, 0x0b, 0x81, 0xe8, 0xbe,
  0xe6, 0xb8, 0xf2, 0xbe, 0x9a, 0xa6, 0x8d, 0x3d, 0xc6, 0x50, 0x74, 0xbe,
  0xc5, 0xf4, 0x1e, 0x3d, 0x99, 0xb7, 0x18, 0xbe, 0x6c, 0xa0, 0x14, 0x3e,
  0x20, 0x69, 0x09, 0x3e, 0x9b, 0x43, 0xb2, 0xbd, 0x04, 0x06, 0xa0, 0x3d,
  0xb3, 0xbd, 0x96, 0x3e, 0x40, 0xf9, 0x81, 0xbd, 0xe2, 0xb2, 0xab, 0xbd,
  0x81, 0x9b, 0x81, 0xbd, 0xdc, 0x4c, 0x44, 0xbd, 0xd8, 0x23, 0xf9, 0xbc,
  0xce, 0x9d, 0xcc, 0xbd, 0x19, 0xd5, 0x14, 0x3d, 0xe9, 0x9c, 0x06, 0xbf,
  0x6d, 0xef, 0x09, 0x3d, 0x4b, 0x32, 0x5e, 0xbe, 0x98, 0xb2, 0x73, 0xbe,
  0x7b, 0xd6, 0x8b, 0xbd, 0x7c, 0x05, 0xa2, 0xbe, 0x78, 0xe2, 0xe2, 0x3c,
  0x31, 0x80, 0x9c, 0x3d, 0xdf, 0xc7, 0xbc, 0xbd, 0x6b, 0x6a, 0x8a, 0xbe,
  0xf4, 0x44, 0x27, 0xbe, 0xc7, 0xa5, 0x8c, 0x3c, 0x2a, 0x9c, 0x58, 0xbe,
  0xc6, 0xde, 0xff, 0xff, 0x10, 0x00, 0x00, 0x00, 0x08, 0x00, 0x00, 0x00,
  0x1c, 0x00, 0x00, 0x00, 0x38, 0x00, 0x00, 0x00, 0x04, 0x00, 0x00, 0x00,
  0x10, 0x00, 0x00, 0x00, 0x04, 0x00, 0x00, 0x00, 0x01, 0x00, 0x00, 0x00,
  0x08, 0x00, 0x00, 0x00, 0x1a, 0x00, 0x00, 0x00, 0x73, 0x65, 0x71, 0x75,
  0x65, 0x6e, 0x74, 0x69, 0x61, 0x6c, 0x2f, 0x63, 0x6f, 0x6e, 0x76, 0x32,
  0x64, 0x5f, 0x31, 0x2f, 0x43, 0x6f, 0x6e, 0x76, 0x32, 0x44, 0x00, 0x00,
  0xc0, 0xde, 0xff, 0xff, 0xb6, 0xdf, 0xff, 0xff, 0x04, 0x00, 0x00, 0x00,
  0x80, 0x01, 0x00, 0x00, 0xfc, 0xaf, 0xb1, 0x3d, 0x43, 0xfe, 0xc8, 0x3d,
  0x5b, 0xa2, 0x5d, 0xbe, 0x47, 0x79, 0xba, 0xbd, 0x43, 0x0b, 0x94, 0x3d,
  0x9c, 0x0e, 0x44, 0xbd, 0xc0, 0x62, 0x3a, 0x3c, 0xd8, 0x94, 0x45, 0x3d,
  0xac, 0x9e, 0x1b, 0xbe, 0x49, 0x05, 0x26, 0x3e, 0xd0, 0x80, 0x80, 0xbe,
  0xc8, 0x24, 0x5c, 0x3e, 0x98, 0x4e, 0xd1, 0x3d, 0x21, 0x0b, 0x23, 0xbd,
  0x2a, 0x17, 0x4f, 0xbd, 0x84, 0x7c, 0xed, 0x3e, 0x65, 0x1f, 0x7c, 0x3e,
  0xa1, 0x23, 0xcb, 0x3d, 0x85, 0x91, 0x3b, 0xbe, 0x7e, 0x36, 0x89, 0x3b,
  0x7b, 0xfd, 0x0f, 0x3e, 0xd5, 0xee, 0x9e, 0xbe, 0x94, 0xa4, 0x56, 0xbe,
  0x93, 0x45, 0x12, 0xbe, 0x49, 0x36, 0xc5, 0x3d, 0xba, 0xa9, 0xd9, 0xbd,
  0x2a, 0xdb, 0x7b, 0xbd, 0xef, 0x1c, 0x40, 0x3e, 0xf2, 0x05, 0xa8, 0xbe,
  0x8f, 0x84, 0x83, 0xbe, 0xa4, 0x57, 0x10, 0xbe, 0x5b, 0xc0, 0xce, 0x3d,
  0x0f, 0x0e, 0x4e, 0x3d, 0x75, 0xcf, 0x9a, 0xbd, 0x63, 0x14, 0xa2, 0x3e,
  0x0f, 0xac, 0x7b, 0x3e, 0x0d, 0x5a, 0x11, 0xbd, 0x65, 0xb9, 0xea, 0xbd,
  0x41, 0x3d, 0x97, 0xbc, 0x71, 0xaf, 0x9b, 0x3b, 0xae, 0xbb, 0xfa, 0xbd,
  0xb0, 0x1d, 0x38, 0x3d, 0x9e, 0xba, 0x5b, 0xbd, 0xcc, 0xd5, 0x3f, 0xbd,
  0xc3, 0xab, 0xfa, 0x3c, 0x0b, 0x3a, 0xb8, 0xbd, 0x3c, 0x4e, 0xd8, 0x3c,
  0x47, 0x7e, 0x73, 0x3c, 0x62, 0xe7, 0x45, 0xbe, 0x22, 0xb4, 0x51, 0x3e,
  0x49, 0xbd, 0x60, 0x3c, 0x7d, 0xf6, 0x8c, 0x3d, 0x7f, 0xfa, 0x7d, 0xbe,
  0x2f, 0x2c, 0xbd, 0x3e, 0x86, 0x47, 0x39, 0x3e, 0xc1, 0xe6, 0x1e, 0xbe,
  0x6f, 0xa8, 0x24, 0xbe, 0x4d, 0x71, 0x8f, 0x3d, 0x4b, 0x3a, 0x70, 0x3e,
  0xa0, 0x60, 0x34, 0xbe, 0x11, 0x7d, 0x77, 0x3d, 0xbe, 0xc1, 0x8d, 0xbd,
  0x70, 0xfb, 0x2a, 0xbd, 0x0f, 0x2d, 0x23, 0x3d, 0x44, 0x8e, 0x91, 0xbd,
  0xf3, 0x22, 0x1c, 0x3e, 0x74, 0x77, 0x81, 0xbd, 0x44, 0x1a, 0x0b, 0x3d,
  0xf1, 0x09, 0xd3, 0x3d, 0x31, 0xb6, 0xbe, 0xbd, 0x7c, 0x3c, 0xae, 0x3d,
  0xaa, 0x58, 0xb7, 0x3d, 0x6b, 0xbf, 0x25, 0x3d, 0xf5, 0xcc, 0x06, 0x3e,
  0xe7, 0x72, 0x6d, 0x3e, 0x82, 0x43, 0x90, 0x3e, 0xe1, 0x39, 0x06, 0xbd,
  0x5c, 0xe0, 0x33, 0x3e, 0x9f, 0xf3, 0x84, 0xbe, 0xab, 0xb4, 0xba, 0x39,
  0xbb, 0xed, 0xae, 0xbe, 0xde, 0x55, 0x98, 0xbc, 0xec, 0x18, 0x13, 0xbe,
  0x33, 0x07, 0x44, 0xbe, 0x45, 0x7a, 0x12, 0x3e, 0xe6, 0x1b, 0x25, 0x3d,
  0x00, 0x95, 0x6f, 0xbe, 0x82, 0xe9, 0xde, 0xbd, 0x0e, 0x22, 0xb4, 0xba,
  0x31, 0xa2, 0xa2, 0x3b, 0x74, 0xe2, 0xfe, 0x3e, 0x35, 0x5a, 0x26, 0x3d,
  0x8a, 0x0c, 0x25, 0x3e, 0x8e, 0xdb, 0xa2, 0x3d, 0x1e, 0xc3, 0x92, 0x3c,
  0xb3, 0x6d, 0xfd, 0xbd, 0x9e, 0xe0, 0xff, 0xff, 0x10, 0x00, 0x00, 0x00,
  0x07, 0x00, 0x00, 0x00, 0x1c, 0x00, 0x00, 0x00, 0x38, 0x00, 0x00, 0x00,
  0x04, 0x00, 0x00, 0x00, 0x08, 0x00, 0x00, 0x00, 0x04, 0x00, 0x00, 0x00,
  0x03, 0x00, 0x00, 0x00, 0x01, 0x00, 0x00, 0x00, 0x18, 0x00, 0x00, 0x00,
  0x73, 0x65, 0x71, 0x75, 0x65, 0x6e, 0x74, 0x69, 0x61, 0x6c, 0x2f, 0x63,
  0x6f, 0x6e, 0x76, 0x32, 0x64, 0x2f, 0x43, 0x6f, 0x6e, 0x76, 0x32, 0x44,
  0x00, 0x00, 0x00, 0x00, 0x98, 0xe0, 0xff, 0xff, 0x8e, 0xe1, 0xff, 0xff,
  0x04, 0x00, 0x00, 0x00, 0x00, 0x01, 0x00, 0x00, 0x64, 0x64, 0x67, 0xbe,
  0xcf, 0x35, 0xce, 0x3e, 0xa1, 0xdc, 0x01, 0xbe, 0x4f, 0x9c, 0xd7, 0x3e,
  0x55, 0x8c, 0xde, 0xbd, 0x19, 0x93, 0xca, 0xbd, 0xc5, 0x3e, 0x15, 0xbd,
  0xa0, 0xbf, 0x06, 0x3d, 0x49, 0xb2, 0x81, 0xbe, 0x67, 0xde, 0xa7, 0x3e,
  0xe3, 0x16, 0xdd, 0x3e, 0xd4, 0x6c, 0x97, 0x3e, 0x4a, 0x1e, 0x91, 0xbe,
  0x86, 0xce, 0xc3, 0x3d, 0x32, 0xfd, 0x8a, 0x3e, 0xd4, 0x07, 0xeb, 0xbe,
  0xfb, 0xe6, 0x36, 0xbe, 0xe8, 0xa2, 0xdf, 0x3e, 0x2f, 0x83, 0x00, 0xbe,
  0x8d, 0xb5, 0xd3, 0xbe, 0xea, 0x57, 0x3e, 0xbf, 0x0a, 0x84, 0xa4, 0xbe,
  0xd9, 0xf4, 0x6f, 0x3e, 0x8b, 0x81, 0x95, 0x3d, 0x18, 0x12, 0x64, 0xbd,
  0x02, 0x78, 0x8c, 0x3e, 0xf7, 0x95, 0xef, 0x3e, 0x4d, 0x3e, 0x95, 0xbe,
  0x1f, 0xd1, 0x8f, 0xbe, 0x22, 0x8e, 0x11, 0x3d, 0xd4, 0x40, 0x3a, 0x3e,
  0x5f, 0x85, 0xdb, 0xbe, 0x3a, 0x73, 0xab, 0xbe, 0xcf, 0x4d, 0xa3, 0x3e,
  0x9a, 0x25, 0xcf, 0xbd, 0x3a, 0xb0, 0x84, 0xbe, 0x42, 0x5f, 0x30, 0xbf,
  0x75, 0xd3, 0xa4, 0x3e, 0x1e, 0x47, 0xbd, 0xbe, 0x50, 0x1d, 0x8c, 0xbe,
  0x24, 0x99, 0xd6, 0xbe, 0x3c, 0xed, 0x6b, 0x3e, 0x5a, 0x79, 0xd0, 0x3e,
  0xb8, 0x42, 0x75, 0xbf, 0x74, 0xdb, 0x95, 0xbe, 0xea, 0xa6, 0x05, 0x3d,
  0x47, 0xf0, 0x25, 0xbf, 0xea, 0xf6, 0xf5, 0xbe, 0x48, 0x48, 0x68, 0xbe,
  0x92, 0x70, 0xa5, 0x3e, 0x0e, 0x05, 0x2c, 0xbe, 0xb4, 0xaf, 0xea, 0xbe,
  0xe3, 0x0d, 0x70, 0xbf, 0xe7, 0xaa, 0xe8, 0x3e, 0xd4, 0x83, 0xf9, 0x3d,
  0x47, 0xe2, 0x1f, 0xbc, 0x0b, 0xfc, 0x1b, 0x3e, 0xe7, 0x74, 0x90, 0x3e,
  0xdc, 0x00, 0xc4, 0x3e, 0x80, 0x2b, 0xd8, 0xbe, 0xad, 0x55, 0xcc, 0xbe,
  0x29, 0xf1, 0x2a, 0x3c, 0x1d, 0xe5, 0x30, 0xbf, 0xc2, 0xa3, 0xd6, 0xbe,
  0xf6, 0xe1, 0xff, 0xff, 0x10, 0x00, 0x00, 0x00, 0x06, 0x00, 0x00, 0x00,
  0x14, 0x00, 0x00, 0x00, 0x30, 0x00, 0x00, 0x00, 0x02, 0x00, 0x00, 0x00,
  0x04, 0x00, 0x00, 0x00, 0x10, 0x00, 0x00, 0x00, 0x19, 0x00, 0x00, 0x00,
  0x73, 0x65, 0x71, 0x75, 0x65, 0x6e, 0x74, 0x69, 0x61, 0x6c, 0x2f, 0x64,
  0x65, 0x6e, 0x73, 0x65, 0x5f, 0x31, 0x2f, 0x4d, 0x61, 0x74, 0x4d, 0x75,
  0x6c, 0x00, 0x00, 0x00, 0xe8, 0xe1, 0xff, 0xff, 0xde, 0xe2, 0xff, 0xff,
  0x04, 0x00, 0x00, 0x00, 0x00, 0x1c, 0x00, 0x00, 0xbc, 0x8b, 0xca, 0xbe,
  0x36, 0x64, 0x43, 0x3d, 0x0a, 0x52, 0x13, 0x3e, 0x6d, 0x22, 0xc2, 0x3d,
  0x95, 0x32, 0x14, 0x3e, 0xbc, 0x7e, 0xdc, 0x3e, 0x90, 0x70, 0x0a, 0xbe,
  0x24, 0xba, 0x1a, 0xbd, 0xd4, 0x5f, 0x0b, 0x3c, 0x0e, 0xaa, 0xcb, 0x3e,
  0xa3, 0x10, 0x13, 0x3e, 0x6a, 0x6e, 0x78, 0x3e, 0xd3, 0x33, 0x4a, 0x3d,
  0xde, 0x47, 0x7e, 0xbe, 0x49, 0xe6, 0x30, 0xbe, 0x85, 0x06, 0xca, 0x3d,
  0x1e, 0x0c, 0x9e, 0xbd, 0x38, 0x7e, 0x34, 0x3d, 0xfa, 0xb5, 0x93, 0x3e,
  0xa2, 0x6c, 0xb6, 0xbe, 0xeb, 0xa5, 0xe9, 0xbd, 0x24, 0x75, 0x97, 0x3e,
  0x71, 0x4e, 0x32, 0x3d, 0x21, 0xf4, 0xa5, 0xbc, 0x7f, 0x57, 0xd9, 0xbc,
  0xe7, 0xff, 0x9c, 0xbe, 0x74, 0x8d, 0xbc, 0xbd, 0x10, 0x62, 0xce, 0xbd,
  0x08, 0xc9, 0xf0, 0xbd, 0x1e, 0xa5, 0xab, 0xbd, 0xc9, 0x67, 0x74, 0xbe,
  0x01, 0x3f, 0x5c, 0x3e, 0xb8, 0x98, 0xf4, 0xbe, 0xc2, 0x6e, 0xc9, 0xbc,
  0x69, 0x48, 0x42, 0x3e, 0x2e, 0xab, 0x15, 0xbf, 0xcc, 0x92, 0xc7, 0xbd,
  0x50, 0xdd, 0x2f, 0xbe, 0x3f, 0x8f, 0x42, 0xbe, 0x61, 0x2f, 0xa7, 0xbc,
  0x4e, 0x2d, 0x2b, 0xbd, 0xa0, 0xd2, 0xc9, 0xbe, 0x8b, 0x2c, 0xe7, 0xbd,
  0x87, 0x32, 0xed, 0xbd, 0x04, 0x88, 0x3e, 0xbe, 0x5a, 0xbd, 0x0c, 0xbe,
  0x42, 0x3d, 0x0b, 0xbe, 0x2d, 0x22, 0xad, 0x3d, 0x36, 0xd9, 0x12, 0xbd,
  0xc2, 0x08, 0xba, 0xbe, 0x62, 0xe3, 0xcf, 0x3d, 0xee, 0x24, 0x1c, 0xbe,
  0x94, 0x89, 0x0d, 0x3e, 0xc2, 0xe7, 0x7c, 0xbd, 0x12, 0xbf, 0x6f, 0xbd,
  0xe3, 0xf9, 0xa2, 0x3c, 0x4d, 0x15, 0xf4, 0xbc, 0x9d, 0x91, 0xc2, 0xbe,
  0x2d, 0xad, 0x70, 0xbd, 0x20, 0x43, 0x94, 0xbd, 0x1c, 0x52, 0x93, 0xbe,
  0x01, 0x97, 0x83, 0x3c, 0xbe, 0xda, 0xe3, 0xbd, 0xb6, 0x6c, 0xa4, 0x3c,
  0xb0, 0x60, 0xf6, 0xbd, 0xf5, 0x94, 0x96, 0xbd, 0x9b, 0x53, 0xcb, 0x3e,
  0x08, 0x9c, 0x94, 0x3d, 0xc2, 0xa2, 0xfd, 0xbc, 0x5f, 0xfd, 0xb2, 0x3e,
  0x68, 0x9a, 0xa5, 0x3c, 0xc0, 0xc3, 0x99, 0x3c, 0x0b, 0xe6, 0x40, 0x3c,
  0x41, 0xba, 0xbf, 0x3e, 0x23, 0x56, 0x49, 0x3d, 0x85, 0x67, 0x8a, 0x3d,
  0xa1, 0x77, 0x53, 0xbd, 0xfc, 0x63, 0xf5, 0x3a, 0x99, 0x06, 0x0b, 0xbe,
  0x10, 0x4a, 0xdc, 0x3b, 0xe0, 0x8f, 0x17, 0xbd, 0xbd, 0xe7, 0x8a, 0xbd,
  0xa3, 0xd7, 0x6b, 0x3e, 0x25, 0xbe, 0x5d, 0xbd, 0x06, 0x3f, 0xbf, 0x3c,
  0x70, 0x27, 0xfd, 0x3e, 0x9c, 0x5a, 0xdd, 0xbd, 0x06, 0x5f, 0xba, 0xbb,
  0xb7, 0x26, 0xc1, 0xbb, 0x6f, 0x9b, 0xaf, 0x3e, 0x85, 0xc1, 0xe6, 0x3d,
  0xd5, 0x99, 0x10, 0x3e, 0x18, 0x10, 0x98, 0xbe, 0x04, 0xad, 0x29, 0xbe,
  0x29, 0x34, 0x16, 0xbe, 0x44, 0xe5, 0xe4, 0xbd, 0x03, 0x6e, 0x16, 0xbc,
  0xac, 0x39, 0xd1, 0xbc, 0xe8, 0xc2, 0x86, 0x3e, 0x9c, 0x75, 0xa4, 0xbc,
  0x6b, 0x67, 0x15, 0x3d, 0x37, 0xef, 0xd8, 0x3c, 0xd7, 0x99, 0x0b, 0xbd,
  0xce, 0x7a, 0x4b, 0x3d, 0x63, 0xf3, 0xff, 0x3d, 0x45, 0xc6, 0x74, 0x3d,
  0x60, 0x22, 0x18, 0x3d, 0x90, 0x54, 0xd2, 0xbb, 0x05, 0x96, 0xfc, 0x3c,
  0x4d, 0xfa, 0x2b, 0xbd, 0x61, 0x4f, 0x01, 0x3e, 0xac, 0xa9, 0x8e, 0x3c,
  0x42, 0xa1, 0x86, 0xbe, 0x30, 0xa1, 0xb7, 0xbd, 0x37, 0xf0, 0xfb, 0xbd,
  0x53, 0x5e, 0x9e, 0xbe, 0x97, 0xd0, 0x22, 0x3e, 0xd7, 0xe2, 0xe5, 0xbb,
  0xd8, 0x6a, 0xdc, 0xbd, 0x54, 0x5e, 0xd6, 0xbd, 0x86, 0xc8, 0x76, 0xbe,
  0xbe, 0xdf, 0x2f, 0xbe, 0x18, 0x37, 0x5b, 0xbd, 0xac, 0x77, 0x92, 0xbe,
  0xf5, 0x07, 0x3d, 0xbe, 0xa7, 0x44, 0xc7, 0xbe, 0x65, 0x8c, 0x15, 0xbf,
  0xab, 0xd6, 0x59, 0x3e, 0x33, 0x77, 0xaa, 0xbd, 0x7e, 0x3d, 0x31, 0xbe,
  0x60, 0x3d, 0x07, 0x3e, 0x45, 0x02, 0x9b, 0x3d, 0xf0, 0xe0, 0x40, 0x3e,
  0xb0, 0xc9, 0x8c, 0x3d, 0x84, 0x39, 0x5d, 0xbd, 0x3c, 0x75, 0x61, 0xbd,
  0x50, 0x6f, 0x6b, 0xbe, 0x43, 0xad, 0xcd, 0x3d, 0x10, 0x61, 0x9b, 0x3b,
  0x32, 0x65, 0xed, 0xba, 0xa2, 0x3b, 0xf5, 0x3d, 0x5e, 0x03, 0x80, 0xbe,
  0x89, 0x89, 0x22, 0xbf, 0x08, 0xb2, 0xe2, 0x3c, 0x14, 0x38, 0x04, 0x3e,
  0x9d, 0x27, 0x8e, 0xbe, 0xa9, 0x91, 0xd7, 0x3d, 0x60, 0x79, 0x41, 0x3d,
  0x93, 0x6f, 0xa8, 0xbd, 0x0c, 0x8c, 0xb5, 0x3d, 0xf4, 0x12, 0x60, 0xbe,
  0x2e, 0x39, 0x84, 0xbd, 0x24, 0xc4, 0x17, 0xbe, 0x05, 0x41, 0x9d, 0x3d,
  0x38, 0x19, 0x53, 0x39, 0xe3, 0x3e, 0x65, 0x3e, 0x6f, 0xca, 0xea, 0x3d,
  0x17, 0x67, 0xb2, 0xbe, 0xce, 0x27, 0x0a, 0xbf, 0x93, 0x6d, 0x97, 0x3e,
  0x93, 0x6b, 0x76, 0xbc, 0x2d, 0x8d, 0x15, 0xbe, 0xc6, 0x5a, 0x6a, 0x3e,
  0xe6, 0x8a, 0xe5, 0xbd, 0x79, 0xef, 0xa9, 0x3d, 0x0a, 0x0b, 0x2d, 0x3d,
  0x49, 0x0b, 0x65, 0xbe, 0x6b, 0x53, 0xd2, 0xbd, 0xf8, 0x75, 0x3b, 0xbe,
  0xe5, 0x34, 0x0c, 0x3e, 0x91, 0xfe, 0x49, 0x3d, 0x56, 0x94, 0x69, 0xbd,
  0xfc, 0xc4, 0xfe, 0xbd, 0xb0, 0xc4, 0xaa, 0xbe, 0x46, 0xcf, 0x2b, 0xbf,
  0x5a, 0x8e, 0x17, 0x3e, 0x74, 0xa4, 0x8f, 0xbd, 0x9a, 0x28, 0xab, 0xbe,
  0x7e, 0x86, 0x8b, 0x3d, 0x3b, 0xa8, 0xa4, 0x3e, 0x8a, 0x4d, 0x90, 0x3d,
  0x2d, 0x18, 0x36, 0xbe, 0x88, 0x8d, 0x02, 0xbe, 0x9b, 0xfc, 0x4a, 0xbd,
  0x0d, 0x0a, 0x15, 0xbe, 0x00, 0x69, 0x54, 0x3e, 0x4f, 0xb5, 0x6c, 0xbd,
  0x75, 0x9b, 0x44, 0x3d, 0x3b, 0xd0, 0x56, 0xbe, 0x47, 0xf7, 0x8d, 0xbd,
  0x95, 0xa5, 0x0e, 0xbf, 0x27, 0xd2, 0x3d, 0x3e, 0x9c, 0xbc, 0x1c, 0xbe,
  0x37, 0x9d, 0x3c, 0x3d, 0x18, 0x10, 0x2e, 0xbd, 0x3d, 0x92, 0x19, 0x3e,
  0x65, 0x30, 0x90, 0xbd, 0x56, 0x4e, 0x44, 0x3e, 0x10, 0x6a, 0x5d, 0xbe,
  0x08, 0xca, 0x72, 0x3d, 0xbd, 0x0a, 0x00, 0x3d, 0x7e, 0xcc, 0xf2, 0x3e,
  0x50, 0x65, 0xf9, 0xbc, 0x81, 0x4e, 0x6d, 0x3e, 0xd0, 0xa0, 0xb3, 0xbd,
  0x51, 0xbf, 0x13, 0x3d, 0x84, 0x6d, 0x2a, 0xbd, 0x77, 0x1e, 0xe7, 0xbd,
  0xfa, 0xd2, 0xc7, 0xbc, 0xa4, 0x21, 0xe2, 0xbc, 0x68, 0x05, 0xf1, 0xbd,
  0xf1, 0x06, 0x5e, 0x3e, 0xa7, 0x46, 0xa6, 0x3d, 0x3e, 0x1a, 0x41, 0x3d,
  0x33, 0xb2, 0x2a, 0xbd, 0x1a, 0x12, 0xaa, 0x3d, 0x4e, 0xe6, 0x3f, 0x3e,
  0xcb, 0x08, 0x13, 0x3e, 0x01, 0xff, 0x1c, 0x3e, 0x2a, 0xdd, 0x74, 0x3d,
  0x78, 0x00, 0xd5, 0x3d, 0x15, 0xf9, 0x4a, 0x3c, 0xb0, 0xa0, 0x0e, 0x3e,
  0xeb, 0x65, 0xa3, 0xbd, 0xe9, 0xb7, 0x46, 0xbd, 0x05, 0xee, 0x2e, 0xbe,
  0x53, 0xc0, 0x1a, 0xbf, 0x26, 0x69, 0xff, 0x3b, 0xc2, 0x88, 0xf6, 0xbb,
  0x78, 0x01, 0xb4, 0xbe, 0xcb, 0x9a, 0x8b, 0x3e, 0xdd, 0xe2, 0x19, 0x3c,
  0xcd, 0x93, 0x50, 0xbc, 0xf1, 0xeb, 0xf4, 0xbe, 0x1f, 0x6b, 0xa4, 0xbe,
  0x07, 0x0b, 0x18, 0xbe, 0xf4, 0xcb, 0x47, 0xbe, 0xd6, 0xaf, 0x38, 0x3e,
  0x45, 0x2b, 0x05, 0x3d, 0xfe, 0x32, 0x01, 0xbe, 0xa7, 0xde, 0x28, 0xbe,
  0x0c, 0x40, 0x11, 0x3d, 0xbb, 0x54, 0xe7, 0x3d, 0x9e, 0x8a, 0x4c, 0x3e,
  0xda, 0xdf, 0x0b, 0x3e, 0xa8, 0x66, 0x99, 0xbd, 0x51, 0xd4, 0x1a, 0x3e,
  0x3d, 0xd3, 0x57, 0xbd, 0x15, 0x46, 0xbf, 0xba, 0x33, 0xe5, 0x9e, 0x3c,
  0x13, 0x32, 0x46, 0xbe, 0x59, 0x2e, 0x18, 0x3e, 0x89, 0xdd, 0x87, 0x3e,
  0xee, 0xfb, 0x71, 0x3e, 0xf7, 0x99, 0xe8, 0x3d, 0x13, 0x9b, 0xe8, 0xbc,
  0xa9, 0xc4, 0xd5, 0xbd, 0x60, 0x54, 0x72, 0xbe, 0xa9, 0xbc, 0x24, 0xbe,
  0xf5, 0x9b, 0x13, 0xbd, 0x5a, 0x6b, 0x91, 0x3d, 0x1a, 0x61, 0x98, 0xbc,
  0xb6, 0xeb, 0x90, 0xbe, 0xc5, 0x9e, 0xd8, 0xbd, 0x98, 0xcd, 0x2b, 0x3d,
  0x51, 0xc1, 0xca, 0x3d, 0x82, 0x49, 0x49, 0xbe, 0x41, 0x39, 0x9c, 0x3e,
  0x3c, 0x8f, 0xab, 0x3e, 0xf0, 0xe2, 0x1e, 0xbc, 0xf2, 0x54, 0xed, 0x3d,
  0xc4, 0x73, 0xe0, 0x3b, 0x90, 0x76, 0x7f, 0x3e, 0x79, 0x0b, 0xb2, 0xbe,
  0x67, 0x39, 0x1a, 0x3d, 0x7e, 0x24, 0x16, 0xbe, 0xb1, 0xf1, 0x26, 0x3e,
  0x2b, 0x80, 0x31, 0xbe, 0x44, 0xf0, 0x4b, 0xbf, 0x38, 0x5c, 0x9a, 0xbd,
  0x93, 0xc8, 0x19, 0x3c, 0x59, 0x15, 0x0d, 0xbf, 0xf8, 0x7a, 0x5c, 0xbf,
  0x8c, 0x82, 0xe1, 0xbe, 0xab, 0xdb, 0x41, 0xbe, 0xe3, 0x2c, 0x1a, 0x3e,
  0xaf, 0x36, 0x70, 0x3d, 0x83, 0x15, 0xac, 0xbd, 0xac, 0x3e, 0xf5, 0x3c,
  0xc1, 0x93, 0x6f, 0xbc, 0x79, 0xb7, 0xb5, 0x3c, 0x5c, 0x45, 0xdf, 0xbd,
  0x32, 0x9e, 0x44, 0x3e, 0xd5, 0x84, 0xa4, 0xbe, 0x36, 0x7b, 0xf2, 0x3b,
  0x9c, 0xdc, 0x9e, 0xbc, 0xeb, 0x1a, 0xda, 0x3b, 0x6a, 0xe1, 0x5e, 0xbe,
  0x92, 0x1f, 0x18, 0xbf, 0xdd, 0x60, 0xf9, 0xbe, 0xd2, 0xa6, 0x18, 0xbe,
  0x38, 0xec, 0xe5, 0x3d, 0xdc, 0x4c, 0x34, 0x3d, 0x2e, 0x6c, 0xcd, 0x3c,
  0xf8, 0xee, 0x34, 0x3d, 0x6a, 0xd0, 0x1e, 0xbe, 0xe6, 0xc2, 0x97, 0xbd,
  0x82, 0x98, 0xb4, 0x3c, 0x4f, 0x6d, 0x7d, 0x3d, 0x17, 0xc3, 0x73, 0xbd,
  0x31, 0x97, 0x3b, 0x3e, 0xc5, 0x7c, 0x09, 0xbd, 0x80, 0xbe, 0xa0, 0xbc,
  0xfa, 0x9a, 0x0a, 0xbd, 0xb4, 0xf3, 0x37, 0xbe, 0x81, 0x2b, 0x89, 0x39,
  0xb0, 0x63, 0xf8, 0x3d, 0x9c, 0xed, 0x71, 0x3e, 0xee, 0x43, 0xd7, 0x3c,
  0x54, 0x3e, 0x24, 0xbe, 0x58, 0xf4, 0xe3, 0xbe, 0xca, 0x9f, 0x49, 0xbd,
  0xff, 0xf7, 0xa3, 0xbe, 0xc2, 0x12, 0x88, 0xbd, 0x73, 0x5d, 0x8b, 0x3c,
  0x8c, 0x28, 0x16, 0xbe, 0x22, 0x75, 0x10, 0x3e, 0x56, 0x07, 0x3f, 0x3b,
  0x59, 0xcb, 0x4b, 0xbd, 0xf3, 0xdb, 0x59, 0xbc, 0x4c, 0x16, 0x3c, 0xbc,
  0xe2, 0x74, 0x0e, 0x3e, 0xd5, 0x9a, 0x33, 0x3e, 0x0a, 0x61, 0xa4, 0x3d,
  0x57, 0x85, 0x87, 0xbd, 0x6f, 0xb6, 0xd1, 0xbe, 0x45, 0x7c, 0xc4, 0x3c,
  0xeb, 0xc1, 0xf7, 0xbd, 0xcc, 0xf7, 0x1a, 0x3e, 0x5c, 0x63, 0x35, 0x3e,
  0x0a, 0xde, 0x0f, 0x3e, 0xb4, 0x19, 0x28, 0xbd, 0xcd, 0xd7, 0x87, 0xbd,
  0xc5, 0xcc, 0xb4, 0xbe, 0xeb, 0xbf, 0xec, 0xbc, 0xe0, 0x16, 0x61, 0xbb,
  0x18, 0x8e, 0xb4, 0xbe, 0x80, 0xe6, 0x67, 0xbe, 0xda, 0x51, 0x70, 0xbe,
  0x8d, 0x5c, 0x62, 0xbe, 0xeb, 0x1c, 0x74, 0xbe, 0x9f, 0x77, 0xde, 0x3e,
  0xdf, 0x94, 0xf0, 0xbd, 0x00, 0xdf, 0x72, 0xbd, 0x7b, 0x73, 0x8e, 0x3e,
  0x66, 0xd0, 0x0d, 0x3f, 0xb0, 0x07, 0xaf, 0x3b, 0xca, 0xa4, 0x69, 0x3d,
  0x68, 0xc0, 0xb6, 0xbd, 0x78, 0x38, 0xbb, 0xbe, 0x87, 0x9d, 0x50, 0xbe,
  0x27, 0xc3, 0xdd, 0xbd, 0x57, 0xe2, 0x88, 0xbd, 0x6e, 0xc1, 0x19, 0x3e,
  0xff, 0x8e, 0x37, 0xbd, 0xbb, 0x9d, 0x20, 0xbe, 0x39, 0x88, 0x8d, 0x3d,
  0x53, 0x66, 0x8e, 0x3e, 0x24, 0x8b, 0x06, 0xbe, 0x1c, 0xbc, 0xf6, 0x3d,
  0x97, 0x8a, 0xb6, 0x3d, 0xdf, 0x89, 0x08, 0x3f, 0x08, 0x3b, 0xaf, 0x3d,
  0x75, 0xb1, 0x8a, 0x3d, 0x3e, 0xa6, 0x6a, 0xbe, 0x42, 0x5c, 0x4b, 0xbe,
  0x59, 0x53, 0x1c, 0xbe, 0x45, 0x12, 0xcc, 0x3d, 0x7e, 0x5e, 0x20, 0x3c,
  0xfc, 0x33, 0xe8, 0xbd, 0x82, 0x68, 0xd8, 0xbd, 0x04, 0xe9, 0x25, 0xbe,
  0x0c, 0x2b, 0x3e, 0xbe, 0xc5, 0xee, 0x9a, 0x3e, 0x7c, 0x5c, 0x82, 0x3e,
  0xea, 0x03, 0x48, 0x3e, 0x5f, 0x07, 0x00, 0x3e, 0x42, 0x47, 0x78, 0x3e,
  0x73, 0xa1, 0xf1, 0x3d, 0x8b, 0x1b, 0x31, 0x3e, 0x56, 0x9f, 0x8d, 0xbe,
  0xd5, 0x85, 0xb6, 0xbe, 0x38, 0xca, 0xd3, 0xbd, 0x82, 0xe5, 0xd2, 0xbd,
  0xdc, 0xcc, 0xf3, 0xbd, 0x99, 0xd8, 0x0c, 0x3e, 0x98, 0x4e, 0x12, 0x3e,
  0xef, 0x85, 0x00, 0x3e, 0x00, 0xe8, 0xdb, 0x3d, 0x9a, 0x0b, 0xde, 0x3e,
  0xf7, 0x63, 0x8c, 0x3e, 0x7a, 0x6a, 0x0d, 0xbe, 0xfb, 0x33, 0x94, 0x3e,
  0xab, 0x9a, 0xcd, 0x3e, 0x62, 0xfd, 0xa9, 0xbb, 0xce, 0x89, 0x45, 0xbc,
  0x4d, 0xae, 0x18, 0x3d, 0x89, 0xb5, 0xe4, 0xbe, 0xee, 0x16, 0x31, 0xbe,
  0xe8, 0x9d, 0xa1, 0xbd, 0x71, 0xcd, 0x70, 0x3c, 0x6d, 0xad, 0xf4, 0xbd,
  0xc5, 0x92, 0xd4, 0x3b, 0x6b, 0x48, 0xec, 0xbc, 0x42, 0xfa, 0x43, 0xbd,
  0x29, 0xd3, 0x8d, 0x3e, 0xdf, 0x53, 0x85, 0xbd, 0x20, 0xd2, 0xe6, 0x3c,
  0x4b, 0xe0, 0x58, 0x3e, 0x80, 0x9f, 0xaa, 0x3d, 0x1a, 0xac, 0xea, 0x3d,
  0xc0, 0x3b, 0x4a, 0xbe, 0x13, 0x86, 0x2c, 0xbe, 0xc8, 0x24, 0xbb, 0xbe,
  0x1f, 0x19, 0x9f, 0xbe, 0x45, 0x52, 0x2e, 0xbe, 0x82, 0x7a, 0xd9, 0xbc,
  0xfd, 0x29, 0x8f, 0xbd, 0xad, 0x56, 0x33, 0xbe, 0x99, 0x40, 0x09, 0xbe,
  0xf7, 0xde, 0x41, 0xbe, 0x8e, 0x33, 0x7f, 0x3e, 0x87, 0x29, 0x1c, 0xbe,
  0x8a, 0x4d, 0x9e, 0x3c, 0x90, 0x0a, 0x04, 0x3e, 0x40, 0x15, 0x3b, 0x3e,
  0x03, 0x19, 0x34, 0xbe, 0x68, 0x1f, 0x82, 0xbc, 0xf8, 0xd3, 0xec, 0x3a,
  0x54, 0xf9, 0x62, 0xbd, 0xa7, 0x5f, 0xba, 0x3d, 0x85, 0x01, 0x81, 0xbd,
  0x24, 0x58, 0x3d, 0xbe, 0x2c, 0x6f, 0xd0, 0x3c, 0x99, 0x6e, 0x6f, 0xbe,
  0x10, 0xf9, 0x27, 0xbe, 0x6b, 0x88, 0x72, 0xbe, 0xc5, 0x71, 0x42, 0x3d,
  0x96, 0x64, 0x4f, 0x3d, 0xd0, 0xde, 0x2c, 0xbe, 0x86, 0xb8, 0xdb, 0x3d,
  0x8b, 0x58, 0x26, 0x3e, 0x57, 0x46, 0x4d, 0x3d, 0x1c, 0xc5, 0x41, 0xbd,
  0xf0, 0x69, 0x5c, 0xbe, 0x4e, 0xc6, 0xad, 0xbe, 0xa5, 0x2a, 0x71, 0xbd,
  0xdb, 0x09, 0xd0, 0x3d, 0x71, 0x71, 0x82, 0xbe, 0xfd, 0x09, 0x5a, 0xbd,
  0xe7, 0x6a, 0x2f, 0xbe, 0x01, 0xa3, 0xf7, 0xbc, 0x07, 0xd1, 0x92, 0xbd,
  0x5e, 0x48, 0x17, 0x3f, 0x1c, 0xed, 0x7d, 0xbe, 0xde, 0x1d, 0x28, 0xbd,
  0x5e, 0x06, 0xae, 0xbc, 0x52, 0xf2, 0xb3, 0x3e, 0x90, 0x9a, 0xca, 0x3c,
  0xee, 0x22, 0xc2, 0x3b, 0x68, 0x30, 0x6e, 0xbb, 0x88, 0x31, 0xde, 0xbe,
  0xcb, 0xd0, 0x39, 0xbe, 0xd2, 0x8e, 0x84, 0x3c, 0x64, 0x83, 0x86, 0xbe,
  0x45, 0xe3, 0xa0, 0x3d, 0x85, 0x5e, 0x13, 0x3d, 0xdd, 0xb2, 0x4a, 0xbd,
  0x2c, 0x8d, 0xda, 0xbe, 0xcd, 0x6e, 0x53, 0x3f, 0x47, 0xa3, 0x19, 0xbe,
  0xfc, 0x69, 0x5f, 0xbe, 0x8c, 0x2f, 0x51, 0x3e, 0xeb, 0x71, 0x27, 0x3f,
  0x27, 0x1b, 0x0e, 0x3e, 0x35, 0x1b, 0x65, 0xbe, 0x52, 0x80, 0x4d, 0x3c,
  0xae, 0x49, 0x31, 0xbe, 0x55, 0x35, 0x69, 0x3b, 0x9c, 0x4f, 0x24, 0xbe,
  0x4e, 0x44, 0xb6, 0xbe, 0x64, 0xff, 0x11, 0xbe, 0xb8, 0x37, 0x87, 0xbc,
  0x07, 0x6c, 0xb1, 0x3c, 0xb9, 0xee, 0x82, 0xbe, 0xed, 0xb6, 0x31, 0x3f,
  0xd4, 0xf3, 0x58, 0xbe, 0x42, 0xb0, 0x59, 0xbe, 0xc6, 0x03, 0x20, 0x3f,
  0x6e, 0x3d, 0xf8, 0x3e, 0xd1, 0x94, 0x11, 0xbe, 0xb9, 0x6a, 0xbc, 0x3c,
  0x02, 0x92, 0xc3, 0xbd, 0xeb, 0x53, 0xd4, 0xbe, 0x80, 0xb4, 0x47, 0xbe,
  0xeb, 0xb5, 0x20, 0xbe, 0x63, 0x87, 0x69, 0xbe, 0x42, 0x36, 0x18, 0xbe,
  0x86, 0x03, 0xdb, 0x3d, 0x2c, 0x8c, 0x50, 0x3e, 0xb9, 0x5f, 0x56, 0xbe,
  0x44, 0x15, 0x02, 0x3f, 0x88, 0x0b, 0xd5, 0x3d, 0x48, 0x6a, 0x33, 0xbe,
  0xb9, 0x83, 0x0b, 0x3e, 0x85, 0x61, 0xb8, 0x3e, 0x4e, 0xdd, 0x47, 0x3e,
  0x27, 0x06, 0x87, 0xbd, 0x7f, 0xed, 0x7b, 0xbd, 0xf2, 0x32, 0x9b, 0xbe,
  0x9e, 0xa5, 0x1d, 0xbe, 0xc7, 0x17, 0x89, 0x3d, 0x8f, 0x3b, 0x85, 0xbe,
  0x99, 0x85, 0x5a, 0x3e, 0xbd, 0x7d, 0xf5, 0xbd, 0x03, 0x8e, 0x7c, 0xbd,
  0x66, 0xab, 0x27, 0xbe, 0x46, 0x06, 0x63, 0x3f, 0x95, 0x57, 0x0d, 0xbe,
  0xa6, 0x16, 0xda, 0xbd, 0xe4, 0x67, 0x85, 0x3d, 0x3d, 0x1c, 0x8d, 0x3d,
  0xc4, 0x60, 0x5c, 0x3d, 0xdd, 0x63, 0x19, 0xbc, 0x0b, 0xb6, 0x07, 0x3d,
  0x38, 0xdb, 0xd0, 0xbe, 0xc2, 0xbf, 0xa0, 0xbe, 0x1b, 0x25, 0x01, 0xbe,
  0x1e, 0xb8, 0x16, 0xbe, 0xc9, 0xa8, 0x05, 0x3d, 0xd1, 0x94, 0x8e, 0x3d,
  0xd1, 0xe1, 0x0c, 0xbe, 0xe3, 0xf0, 0xc1, 0xbe, 0x4f, 0xfd, 0x49, 0x3f,
  0xcb, 0x67, 0x1d, 0x3d, 0x14, 0x90, 0x20, 0xbe, 0x75, 0xbc, 0xb3, 0x3e,
  0xe1, 0x52, 0xc2, 0x3e, 0xf0, 0xd5, 0x15, 0x3e, 0x3d, 0x3b, 0x9b, 0xbe,
  0xa6, 0xc4, 0x8e, 0xbe, 0xaf, 0x7b, 0x6b, 0xbe, 0xa6, 0x28, 0x6b, 0xbe,
  0xcd, 0x65, 0x35, 0xbe, 0xfb, 0x0b, 0x24, 0xbe, 0x80, 0x71, 0x37, 0xbe,
  0x44, 0x72, 0x19, 0x3e, 0x68, 0xf4, 0x82, 0xbe, 0x3a, 0x52, 0x99, 0xbe,
  0x9b, 0x22, 0xe0, 0xbd, 0x50, 0x50, 0xfa, 0xbc, 0xea, 0xcf, 0x95, 0xbd,
  0xdd, 0x3f, 0xdc, 0x3d, 0x79, 0x25, 0x76, 0xbe, 0x71, 0x94, 0x8d, 0x3d,
  0x9c, 0x62, 0x56, 0xbe, 0x78, 0xd2, 0x0f, 0x3d, 0xa2, 0x2a, 0xa6, 0xbe,
  0x32, 0xd1, 0x1c, 0x3d, 0x8a, 0xb8, 0x8d, 0xbd, 0x91, 0x4e, 0x5a, 0x3c,
  0x72, 0x06, 0x26, 0xbd, 0xe2, 0x74, 0x32, 0xbe, 0x60, 0x6e, 0x0a, 0xbe,
  0x81, 0xa3, 0x82, 0xbd, 0xdd, 0x97, 0xc2, 0x3d, 0x91, 0x11, 0xa4, 0xbd,
  0x53, 0xd8, 0x7c, 0x3d, 0xd2, 0xe8, 0x50, 0x3e, 0xdb, 0x38, 0x4f, 0xbe,
  0x4b, 0x1e, 0x2f, 0xbe, 0xd5, 0xc5, 0xfd, 0xbd, 0x34, 0xb1, 0x03, 0x3e,
  0xbf, 0xdb, 0xb0, 0xbe, 0x78, 0x0a, 0xf9, 0xbd, 0x9c, 0xe0, 0x68, 0x3d,
  0x02, 0x13, 0x23, 0xbd, 0xa0, 0x71, 0x2b, 0xbe, 0xbd, 0x94, 0xbe, 0x3d,
  0xe4, 0xd1, 0x06, 0x3e, 0x32, 0xe3, 0xa1, 0x3d, 0x5c, 0xce, 0x89, 0x3d,
  0xa6, 0x23, 0x76, 0x3b, 0x10, 0xf6, 0x2e, 0x3d, 0xc5, 0xfe, 0x0f, 0xbe,
  0xc2, 0xa8, 0x47, 0xbe, 0x66, 0xd3, 0x20, 0xbe, 0x12, 0xde, 0xfc, 0xbd,
  0xc4, 0xe2, 0x72, 0xbe, 0xbe, 0x1d, 0x8d, 0xbe, 0x59, 0xe5, 0xff, 0xbd,
  0x1a, 0xa9, 0x8b, 0x3d, 0xbf, 0x51, 0xf7, 0x3b, 0xc7, 0x26, 0x20, 0xbe,
  0xef, 0xfe, 0x89, 0xbd, 0xcb, 0x56, 0x39, 0x3a, 0xb6, 0x62, 0x3a, 0x3c,
  0x8b, 0x2b, 0x0c, 0xbe, 0x3c, 0x24, 0x5c, 0xbe, 0x89, 0xfd, 0x4a, 0xbe,
  0x0f, 0xca, 0x2d, 0xbe, 0x2e, 0xcb, 0xca, 0xbd, 0x23, 0x52, 0x7b, 0x3d,
  0xb7, 0xb3, 0x93, 0xbc, 0x16, 0xf0, 0xce, 0xbd, 0x72, 0x5e, 0xcf, 0xbc,
  0xe1, 0xc0, 0x64, 0xbe, 0xe6, 0x2e, 0x1b, 0x3e, 0x65, 0x2b, 0xc4, 0x3d,
  0x7d, 0xb6, 0x2a, 0xbd, 0x54, 0x31, 0x7f, 0xbd, 0x41, 0x88, 0xbc, 0xbd,
  0xae, 0x75, 0x1d, 0xbe, 0x32, 0x2c, 0xcc, 0xbd, 0xec, 0xb5, 0xed, 0xbd,
  0xc0, 0x22, 0x09, 0x3e, 0x35, 0xa9, 0x38, 0xbd, 0x29, 0x14, 0xcd, 0x3d,
  0xe9, 0x2e, 0x3c, 0x3e, 0x80, 0x01, 0x07, 0xbe, 0xba, 0x35, 0xc5, 0x3d,
  0x83, 0x96, 0x1f, 0xbe, 0x65, 0x9b, 0x25, 0xbe, 0x76, 0x05, 0xc0, 0xbd,
  0x70, 0x2d, 0x94, 0xbe, 0xd0, 0xbe, 0x8f, 0x3d, 0x9d, 0x0a, 0xe8, 0xbd,
  0xae, 0xc1, 0x63, 0xbd, 0x8c, 0x1e, 0x50, 0xbe, 0xff, 0xae, 0x74, 0x3d,
  0xc1, 0xce, 0xd6, 0xbc, 0xf6, 0x19, 0x26, 0xbe, 0xcb, 0xbd, 0x43, 0x3e,
  0x04, 0xc6, 0xfc, 0xbd, 0x8f, 0x07, 0x28, 0x3e, 0x46, 0xa2, 0x2d, 0xbe,
  0x47, 0xad, 0xf9, 0xbc, 0x66, 0x18, 0x69, 0xbe, 0x60, 0x36, 0xca, 0xbd,
  0xb2, 0xd5, 0x55, 0x3d, 0xa6, 0x17, 0xfb, 0xbd, 0xab, 0x9d, 0x4f, 0xbe,
  0x9d, 0x09, 0x0a, 0x3e, 0x69, 0xfa, 0x56, 0xbe, 0x3c, 0xba, 0x9a, 0x3b,
  0xd6, 0xf9, 0x8a, 0xbd, 0xf9, 0x80, 0x88, 0x3d, 0x6c, 0xd0, 0x74, 0xbe,
  0x51, 0x5b, 0xc5, 0xbd, 0xcf, 0xbe, 0x04, 0xbe, 0xc2, 0x0f, 0x38, 0x3e,
  0xbc, 0x67, 0xdc, 0x3c, 0x9c, 0x33, 0x6d, 0xbe, 0xd9, 0x50, 0x75, 0xbd,
  0x0d, 0x4b, 0x38, 0x3d, 0x68, 0xa0, 0x13, 0x3e, 0x3e, 0x76, 0xfd, 0xbd,
  0xdb, 0x86, 0x80, 0xbd, 0x6f, 0x71, 0xb3, 0x3d, 0x8f, 0x5d, 0x17, 0xbe,
  0x4d, 0x82, 0x75, 0xbe, 0xd5, 0xa7, 0x3d, 0xbe, 0x0b, 0x47, 0x03, 0xbe,
  0x45, 0xda, 0x2b, 0xbe, 0x5f, 0x56, 0x99, 0x3e, 0xa2, 0x26, 0x04, 0xbe,
  0x61, 0x32, 0x67, 0xbd, 0xc0, 0xee, 0x54, 0x3d, 0xa9, 0xd0, 0xbe, 0xbd,
  0xcf, 0x56, 0x55, 0xbe, 0xc1, 0x49, 0x47, 0xbd, 0x23, 0x05, 0x05, 0xbd,
  0x21, 0xe9, 0x4a, 0x3e, 0xad, 0xcf, 0xee, 0xbd, 0x91, 0x0b, 0x3a, 0xbe,
  0xb2, 0xfa, 0x77, 0xbe, 0x3f, 0x72, 0xaf, 0xbe, 0x1e, 0xf2, 0x22, 0x3e,
  0x4c, 0xbc, 0x30, 0xbe, 0xa8, 0x78, 0x32, 0xbe, 0xf2, 0xf1, 0xd8, 0x3d,
  0x8a, 0x19, 0xaf, 0xbd, 0xea, 0x6a, 0x2c, 0x3e, 0x31, 0x39, 0xb1, 0xbc,
  0xda, 0x35, 0xb9, 0xbd, 0xa2, 0xc4, 0x2b, 0xbe, 0x43, 0xd2, 0xab, 0xbd,
  0x93, 0x04, 0xca, 0x3b, 0x7b, 0x59, 0xab, 0x3d, 0xbb, 0x67, 0xa7, 0x3d,
  0xb1, 0xb7, 0x16, 0x3d, 0x20, 0x55, 0x7a, 0x3c, 0x19, 0x32, 0x8c, 0xbe,
  0xec, 0xc8, 0xae, 0x39, 0xaa, 0xf0, 0xf6, 0x3d, 0xdc, 0x72, 0x12, 0x3b,
  0xa7, 0x7f, 0x5c, 0xbe, 0x78, 0xff, 0xf4, 0xbc, 0x2c, 0x71, 0xa9, 0xbc,
  0x55, 0x3a, 0xfa, 0x3d, 0xa5, 0xc4, 0x37, 0xbe, 0x2d, 0x73, 0xc5, 0xbd,
  0x5a, 0x1d, 0xa4, 0xbd, 0xf7, 0xf5, 0xe3, 0x3c, 0x1a, 0x6c, 0x3d, 0x3e,
  0xf2, 0x97, 0x96, 0xbd, 0xba, 0x73, 0x0c, 0xbd, 0xa1, 0x78, 0x1f, 0xbc,
  0xcf, 0x9f, 0xc4, 0xbe, 0xe1, 0x14, 0xcd, 0x3d, 0x34, 0x78, 0x8e, 0xbd,
  0xec, 0xb2, 0x20, 0xbd, 0xce, 0xdf, 0x93, 0xbc, 0xfb, 0xe3, 0x16, 0xbe,
  0x7d, 0xd8, 0xb7, 0xbd, 0x25, 0x27, 0xcb, 0x3d, 0x9c, 0x1c, 0x1c, 0xbe,
  0xcb, 0xa4, 0xf0, 0xbd, 0x5e, 0xfa, 0xa7, 0xbd, 0xa7, 0xfc, 0x77, 0xbe,
  0xd7, 0x7f, 0x4b, 0x3e, 0xa8, 0x37, 0x76, 0xbd, 0xd8, 0x6d, 0x1a, 0x3d,
  0x8f, 0xcb, 0x7f, 0xbd, 0xe5, 0x8d, 0x8b, 0xbe, 0xcd, 0xd1, 0xde, 0xbd,
  0xcb, 0xa6, 0x3b, 0xbe, 0xb5, 0x33, 0x05, 0xbe, 0x21, 0x97, 0x28, 0x3e,
  0x2b, 0x81, 0xb8, 0xbd, 0x0f, 0x35, 0x0b, 0xbe, 0x78, 0x2e, 0xdb, 0xbc,
  0xd1, 0xdc, 0xa8, 0xbe, 0x5b, 0x8f, 0x8a, 0xbd, 0xd5, 0xf1, 0xb1, 0xbe,
  0x02, 0x7b, 0xa3, 0xbd, 0xbd, 0xd7, 0x17, 0x3e, 0x83, 0xe8, 0x7b, 0x3d,
  0x69, 0x0f, 0x0c, 0xbe, 0xa7, 0xb4, 0xb7, 0xbe, 0x1e, 0x30, 0x6a, 0xbe,
  0x9a, 0x76, 0xad, 0xbd, 0xa9, 0xd5, 0x3e, 0x3b, 0x04, 0x96, 0x86, 0xba,
  0xc3, 0xb7, 0x1c, 0xbd, 0xdb, 0x34, 0x2f, 0xbe, 0xb5, 0x3e, 0x57, 0x3e,
  0xce, 0x38, 0x27, 0x3b, 0x25, 0x4a, 0x4e, 0xbd, 0x46, 0x54, 0x54, 0xbe,
  0x17, 0x9a, 0x31, 0xbe, 0xcb, 0x54, 0xe4, 0xbd, 0xe0, 0xcd, 0x36, 0xbd,
  0x22, 0x4d, 0xfb, 0xbc, 0x82, 0xb4, 0xdf, 0xbd, 0x63, 0xb8, 0x9f, 0xbd,
  0xec, 0x14, 0x8d, 0xbe, 0x6c, 0x7d, 0xda, 0x3c, 0x0d, 0x2a, 0x05, 0xbe,
  0xdf, 0x3f, 0x47, 0xbd, 0x00, 0xe0, 0x1d, 0xbe, 0x25, 0x44, 0x98, 0x3e,
  0x7a, 0xbc, 0x9d, 0xbd, 0x13, 0x5f, 0xb4, 0xbd, 0x3f, 0x92, 0x4d, 0x3d,
  0xb0, 0x93, 0x08, 0x3d, 0xb2, 0x10, 0x97, 0x3d, 0xf8, 0x08, 0xce, 0x3e,
  0x75, 0x67, 0x33, 0x3c, 0x2e, 0xc3, 0xf2, 0x3d, 0x7e, 0x10, 0x07, 0x3e,
  0x18, 0xb8, 0xf1, 0xbd, 0x37, 0xa8, 0xf6, 0xbb, 0x64, 0xb8, 0x51, 0xbe,
  0xff, 0x56, 0x26, 0xbe, 0x08, 0xb7, 0x71, 0xbe, 0x5f, 0x33, 0xad, 0x3d,
  0xbf, 0xf9, 0x28, 0xbe, 0xf3, 0x5c, 0x28, 0x3e, 0x72, 0x79, 0x5f, 0xbe,
  0x07, 0x29, 0x4f, 0xbe, 0xe5, 0xf5, 0x96, 0xbe, 0xd4, 0x5c, 0xa8, 0xbe,
  0x85, 0x37, 0x88, 0xbe, 0x68, 0x87, 0xfe, 0x3d, 0xb1, 0x9c, 0xcf, 0xbb,
  0x41, 0x51, 0x65, 0xbd, 0xaa, 0x8f, 0xca, 0xbe, 0x15, 0x95, 0x36, 0xbf,
  0xc3, 0x85, 0x2b, 0x3e, 0x77, 0xaf, 0x05, 0xbc, 0x67, 0x40, 0x04, 0x3d,
  0x44, 0x79, 0xec, 0x3d, 0x69, 0xba, 0x0a, 0xb9, 0x04, 0xd4, 0xca, 0xbd,
  0xdd, 0x64, 0x13, 0xbe, 0x35, 0xe6, 0xdd, 0xbe, 0xcc, 0xb9, 0xb7, 0xbe,
  0x54, 0xec, 0x82, 0xbe, 0x21, 0xfe, 0x19, 0xbe, 0xae, 0xb1, 0xac, 0x3d,
  0x9a, 0xd5, 0x5e, 0xbd, 0x4f, 0x0a, 0x80, 0xbd, 0x03, 0x7a, 0xb5, 0x3b,
  0x0c, 0xfb, 0x10, 0xbf, 0x58, 0x6c, 0xa7, 0xbd, 0xf3, 0x5f, 0x1c, 0x3d,
  0xd2, 0x7c, 0x4b, 0xbd, 0xa0, 0x5b, 0x36, 0xbb, 0x29, 0x5b, 0x68, 0xbe,
  0x17, 0x76, 0x39, 0x3e, 0x69, 0x54, 0x82, 0xbc, 0x26, 0xfe, 0xd7, 0xbe,
  0xa5, 0x67, 0xc3, 0xbe, 0xe9, 0x9b, 0x5b, 0xbe, 0x41, 0xac, 0x05, 0xbe,
  0xbc, 0xa3, 0x60, 0x3e, 0xc3, 0xde, 0xd6, 0xbd, 0xf2, 0xd8, 0x6c, 0x3c,
  0x86, 0xff, 0xaf, 0xbe, 0xda, 0x66, 0x25, 0xbf, 0x51, 0xf2, 0x33, 0x3d,
  0x29, 0x6b, 0x89, 0xbd, 0x93, 0xfe, 0xe0, 0xbd, 0x58, 0x74, 0xc7, 0x3b,
  0xad, 0x74, 0x4a, 0xbe, 0x55, 0x48, 0xce, 0x3d, 0x75, 0xc7, 0x40, 0xbd,
  0xcd, 0x62, 0xb9, 0xbe, 0xbc, 0xa0, 0xb2, 0xbe, 0xb9, 0x48, 0x7b, 0xbe,
  0xe0, 0x3d, 0xeb, 0xbd, 0x68, 0xc0, 0x3c, 0x3b, 0xcf, 0xcf, 0x91, 0xbe,
  0x85, 0xba, 0x34, 0xbe, 0x73, 0xae, 0x69, 0xbe, 0x2e, 0x60, 0xff, 0xbe,
  0x8a, 0xbc, 0x2e, 0x3e, 0xe2, 0xb3, 0x2d, 0xbd, 0xa2, 0x1b, 0xf7, 0x3d,
  0xd2, 0x53, 0x6f, 0xbc, 0x34, 0xec, 0x38, 0x3e, 0x05, 0x4a, 0x6a, 0xbc,
  0xe3, 0x5d, 0x82, 0x3e, 0x52, 0x7b, 0x79, 0xbe, 0x07, 0x4f, 0xb4, 0x3b,
  0x1a, 0x03, 0xfd, 0x3b, 0x29, 0x6d, 0x8d, 0x3e, 0xd3, 0x41, 0x0c, 0xbd,
  0x3e, 0xc2, 0x0b, 0x3e, 0x82, 0x52, 0xb0, 0xbe, 0x4c, 0xb6, 0xbe, 0xbd,
  0x53, 0xcb, 0x9d, 0xbe, 0xf1, 0x14, 0x3f, 0x3e, 0xc4, 0xfa, 0x19, 0xbe,
  0xd5, 0x1a, 0x62, 0x3d, 0x2d, 0xc5, 0xa1, 0x3d, 0x2f, 0x32, 0x0a, 0xbd,
  0x04, 0x46, 0xd2, 0xbd, 0xbc, 0xf3, 0xce, 0x3e, 0xeb, 0x80, 0x65, 0xbd,
  0x0e, 0x65, 0x53, 0x3d, 0x26, 0x2e, 0x4b, 0x3d, 0x5a, 0x73, 0x9b, 0x3e,
  0xcb, 0x1c, 0x48, 0x3e, 0xbb, 0x6d, 0xab, 0x3e, 0xc8, 0x69, 0x52, 0xbd,
  0xaf, 0xf0, 0xb1, 0xbc, 0xcc, 0xd6, 0x18, 0xbe, 0xca, 0xe4, 0xc2, 0xbd,
  0x14, 0xdb, 0x9c, 0x3c, 0xd4, 0xe2, 0x4f, 0x3d, 0x66, 0xce, 0xb9, 0x3d,
  0x4e, 0x45, 0x47, 0x3c, 0xed, 0xf1, 0x3e, 0xbd, 0x10, 0xda, 0x0c, 0x3e,
  0x7f, 0xff, 0x87, 0x3d, 0x2b, 0xdf, 0x8d, 0x3d, 0x9d, 0x2c, 0x26, 0x3e,
  0x61, 0x3f, 0xa4, 0x3d, 0x3c, 0x87, 0x95, 0xbd, 0x89, 0x31, 0xcc, 0x3d,
  0xb3, 0x6e, 0x77, 0xbd, 0x28, 0x81, 0xbe, 0x3d, 0xca, 0x09, 0x38, 0x3e,
  0x80, 0x08, 0x89, 0xbe, 0x19, 0xc8, 0xa4, 0xbd, 0x08, 0x54, 0xb8, 0xbd,
  0x46, 0xf6, 0x46, 0x3e, 0xcb, 0xad, 0x2a, 0x3e, 0x1d, 0x18, 0x9d, 0x3d,
  0x89, 0x0b, 0x5f, 0xbd, 0xaa, 0x1b, 0x65, 0xbe, 0x8a, 0x21, 0x8a, 0xbd,
  0xfb, 0x59, 0x91, 0xbe, 0xf3, 0xcd, 0x3a, 0xbe, 0xdf, 0x0a, 0x95, 0x3d,
  0xd8, 0x22, 0x3e, 0x3e, 0x6c, 0x83, 0x72, 0x3d, 0xc5, 0x48, 0xcc, 0x3c,
  0x50, 0x46, 0xf5, 0xbd, 0xf0, 0xd8, 0x13, 0xbd, 0x4f, 0x35, 0x80, 0xbe,
  0xaa, 0x03, 0xf3, 0xbd, 0x46, 0xea, 0x8a, 0xbc, 0xa0, 0xcf, 0x6d, 0xbc,
  0x9f, 0x9f, 0x51, 0x3e, 0x03, 0x6f, 0xf7, 0xbc, 0xff, 0x23, 0x53, 0xbe,
  0xa7, 0x1d, 0x72, 0x3d, 0xa8, 0x74, 0x3d, 0xbe, 0xae, 0xf9, 0xd4, 0x3c,
  0x26, 0x18, 0xf8, 0xbd, 0x5b, 0x6e, 0x4a, 0xbd, 0xaa, 0xcd, 0xf5, 0xbd,
  0x0e, 0xb4, 0x1d, 0x3c, 0x3d, 0xf6, 0x84, 0xbc, 0xad, 0xa2, 0x7c, 0x3d,
  0xb3, 0x64, 0xdc, 0xbd, 0xee, 0x08, 0x0f, 0xbe, 0xb5, 0xbd, 0xd8, 0xbd,
  0xb1, 0xdb, 0x00, 0x3d, 0x05, 0xe5, 0x4b, 0xbe, 0xbd, 0x3e, 0x89, 0xbc,
  0x05, 0x5c, 0xab, 0x3d, 0xb9, 0x96, 0x79, 0xbe, 0x14, 0x9a, 0x30, 0xbe,
  0x95, 0x17, 0x82, 0x3d, 0xd2, 0xbd, 0xfa, 0xbd, 0xba, 0xf0, 0x2f, 0x3b,
  0x11, 0xd0, 0xfa, 0xba, 0x8d, 0x84, 0xd1, 0x3c, 0x8d, 0x49, 0x4d, 0xbe,
  0xf1, 0xe0, 0x49, 0x3d, 0xf2, 0xec, 0xa5, 0xbd, 0x47, 0xff, 0xd4, 0xbd,
  0x15, 0xed, 0xa7, 0x3d, 0x69, 0xe3, 0xc7, 0xbc, 0xe9, 0xe4, 0x90, 0x3d,
  0xbe, 0x59, 0xf3, 0x3d, 0xc9, 0x65, 0x82, 0xbd, 0x53, 0x31, 0xa8, 0xbe,
  0x6f, 0x97, 0xaa, 0xbe, 0x03, 0x89, 0x02, 0x3c, 0x25, 0x19, 0x66, 0xbe,
  0x4f, 0x26, 0xd7, 0x3d, 0x47, 0xbb, 0x1b, 0x3e, 0x4e, 0xa5, 0x24, 0xbe,
  0xb8, 0x4d, 0xa1, 0x3d, 0x31, 0x57, 0x31, 0xbe, 0x71, 0x9c, 0xbb, 0xbd,
  0x6f, 0x0e, 0x40, 0xbe, 0xd3, 0x8d, 0x71, 0xbe, 0xf8, 0x6e, 0xfa, 0xbc,
  0x37, 0xaa, 0x28, 0xbe, 0xf6, 0x91, 0x3c, 0xbe, 0xec, 0x19, 0xb7, 0xbc,
  0xa5, 0xa9, 0x83, 0xbe, 0x68, 0xdf, 0xae, 0xbe, 0xad, 0xc0, 0x81, 0xbd,
  0x21, 0xcb, 0x89, 0xbe, 0x68, 0xb7, 0x34, 0x3d, 0x59, 0x82, 0x99, 0x3d,
  0xde, 0x5f, 0x27, 0xbe, 0x12, 0xff, 0x1f, 0x3d, 0x13, 0x9b, 0xe1, 0x3d,
  0x19, 0x2c, 0xdf, 0xbc, 0x24, 0x94, 0x2e, 0xbe, 0xd4, 0xa8, 0x41, 0xbc,
  0x27, 0xc1, 0x3b, 0xbe, 0x6a, 0x1e, 0x3f, 0xbe, 0xdc, 0xa7, 0xfa, 0xbd,
  0x10, 0xc1, 0xf2, 0x3d, 0xcd, 0x66, 0x8e, 0xbe, 0x15, 0x7e, 0x2a, 0xbe,
  0xef, 0x7f, 0xa0, 0x3d, 0xea, 0xe5, 0x0d, 0x3c, 0x7b, 0x62, 0x86, 0xbb,
  0x9e, 0xa7, 0xad, 0xbc, 0x5a, 0xd4, 0x5b, 0xbd, 0x66, 0x33, 0xc4, 0xbd,
  0xee, 0xe3, 0x28, 0x3c, 0x5e, 0xa5, 0x1b, 0x3e, 0x41, 0x90, 0x3d, 0xbe,
  0xb8, 0x48, 0xb3, 0xbd, 0xc0, 0x5d, 0x9e, 0x3d, 0xb9, 0x93, 0x10, 0x3e,
  0x8a, 0x9e, 0x96, 0x3c, 0xac, 0xfa, 0x3c, 0xbe, 0x3f, 0xdb, 0x23, 0xbd,
  0x1f, 0x5b, 0xcb, 0xbb, 0xb1, 0x4e, 0x33, 0x3d, 0xb5, 0x3f, 0x7a, 0xbd,
  0x1b, 0x5f, 0x85, 0x3c, 0x19, 0x98, 0xba, 0xbd, 0x26, 0x0a, 0xb9, 0xbc,
  0x25, 0x67, 0xa6, 0xbc, 0xd4, 0x8d, 0xcc, 0xbd, 0x73, 0x9f, 0xa9, 0x3e,
  0x91, 0xab, 0x0a, 0x3e, 0xf8, 0xe5, 0xe3, 0xbc, 0x87, 0xa0, 0x51, 0x3d,
  0xbf, 0x20, 0x0c, 0x3e, 0x08, 0x72, 0xe5, 0xbd, 0xe5, 0x3a, 0xf2, 0xbe,
  0x85, 0x43, 0x66, 0xbc, 0xb1, 0xee, 0x4d, 0xbe, 0xd0, 0x63, 0x84, 0xbe,
  0x38, 0x0e, 0x5e, 0xbe, 0x86, 0xb1, 0x79, 0xbe, 0x5b, 0x81, 0x9f, 0x3e,
  0x67, 0x7e, 0xb3, 0xbd, 0x00, 0xe6, 0x51, 0xbd, 0x37, 0x89, 0x88, 0x3e,
  0x0f, 0x71, 0x86, 0x3e, 0x03, 0xec, 0xe5, 0xbd, 0x5c, 0xa4, 0x3f, 0xbd,
  0x1e, 0xb5, 0x06, 0x3e, 0xf1, 0xb1, 0x74, 0xbe, 0x5c, 0xfc, 0xa8, 0xbe,
  0xa4, 0xe9, 0xcd, 0xbe, 0x44, 0x56, 0xa5, 0xbc, 0x49, 0xcc, 0x49, 0xbd,
  0xce, 0x30, 0x81, 0x3d, 0x2f, 0x6d, 0xa6, 0xbd, 0x34, 0x05, 0x97, 0xbd,
  0xbc, 0x44, 0x92, 0x3d, 0x41, 0x44, 0x37, 0xbc, 0xe9, 0x99, 0x00, 0xbd,
  0xf7, 0x24, 0xb9, 0x3d, 0x29, 0x09, 0xbd, 0x3e, 0x6d, 0x8b, 0xae, 0x3e,
  0xd6, 0xcd, 0xa0, 0x3d, 0xcc, 0x86, 0xbb, 0x3e, 0xb2, 0x38, 0x10, 0xbe,
  0x28, 0x5a, 0xa1, 0x3e, 0x0d, 0xe0, 0x0d, 0xbe, 0xdc, 0x36, 0xb9, 0x3a,
  0xd7, 0x0b, 0x07, 0xbd, 0xfc, 0xea, 0x47, 0x3e, 0xfe, 0xac, 0x1e, 0x3e,
  0x9f, 0xfb, 0x1a, 0xbe, 0xe1, 0xcb, 0x88, 0x3c, 0x7c, 0xe8, 0x94, 0xbe,
  0xe2, 0x4b, 0x95, 0xbd, 0x5b, 0x41, 0x47, 0xbd, 0x54, 0x00, 0xb0, 0x3e,
  0xd1, 0x90, 0xe2, 0x3e, 0x37, 0xb2, 0x97, 0xbd, 0x34, 0x1f, 0x2d, 0x3f,
  0x9f, 0x38, 0x9d, 0x3c, 0xcf, 0xe3, 0xa9, 0x3e, 0x2a, 0xe1, 0x32, 0xbd,
  0x8a, 0x67, 0x08, 0x3d, 0x3f, 0xe6, 0xa6, 0xbe, 0xbb, 0xf7, 0x17, 0x3e,
  0xc0, 0x69, 0x81, 0x3d, 0xeb, 0xa4, 0x88, 0x3d, 0x03, 0x59, 0x3f, 0x3e,
  0x9e, 0xfd, 0x39, 0xbe, 0xfa, 0xb6, 0xf3, 0xbd, 0xd0, 0xe6, 0x8e, 0xbe,
  0xa6, 0x85, 0xca, 0x3e, 0x1d, 0xb2, 0xf0, 0x3d, 0xd9, 0x99, 0x9a, 0xbd,
  0x65, 0xb4, 0x4e, 0x3e, 0x2a, 0x86, 0xdf, 0x3d, 0x14, 0x33, 0xca, 0x3d,
  0x50, 0x00, 0xe5, 0xbe, 0xee, 0x4e, 0x31, 0x3c, 0xcd, 0x64, 0x71, 0xbe,
  0x0b, 0x6c, 0x91, 0xbe, 0xcf, 0xef, 0xe0, 0xbd, 0x70, 0x41, 0x3f, 0xbe,
  0x71, 0x0f, 0xe7, 0x3e, 0x29, 0xb7, 0x30, 0xbe, 0x5a, 0xdf, 0xdb, 0xbc,
  0x60, 0x67, 0xe4, 0xbd, 0xb9, 0xda, 0x99, 0x3e, 0x6f, 0xe6, 0xe2, 0x3d,
  0x42, 0x9c, 0x83, 0x3d, 0x12, 0x6d, 0xc5, 0x3d, 0xd9, 0xdf, 0xb7, 0xbd,
  0x46, 0x55, 0xa7, 0xbe, 0x86, 0x43, 0x8b, 0xbe, 0xf5, 0xc9, 0xea, 0x3d,
  0x40, 0xdd, 0x9c, 0xbd, 0x92, 0x2b, 0x74, 0xbe, 0xa8, 0x99, 0x73, 0xbe,
  0xbd, 0x37, 0xb3, 0xbe, 0x28, 0x79, 0xb3, 0x3e, 0x37, 0x96, 0x3f, 0xbd,
  0x56, 0x84, 0x39, 0x3e, 0x1d, 0xac, 0xa8, 0x3c, 0x45, 0x45, 0xf2, 0x3d,
  0xff, 0x5e, 0x68, 0x3d, 0xc6, 0x96, 0x72, 0xbd, 0xf7, 0xa7, 0x5a, 0x3d,
  0x79, 0x89, 0xa2, 0x3d, 0x5b, 0x5f, 0xb5, 0xbe, 0x36, 0x1b, 0x60, 0xbc,
  0xec, 0x0e, 0xa0, 0x3c, 0x49, 0xcd, 0xd5, 0xbd, 0x3b, 0x12, 0x31, 0xbd,
  0x73, 0xc5, 0x22, 0xbd, 0x71, 0x88, 0xba, 0xbd, 0xac, 0xb7, 0xa4, 0xbc,
  0x3b, 0x17, 0x4f, 0xbd, 0x98, 0xef, 0xfb, 0xbc, 0x64, 0x8a, 0x3c, 0x3c,
  0xaa, 0xec, 0x78, 0xbe, 0x25, 0xef, 0xed, 0xbb, 0xd0, 0x73, 0xcd, 0xbe,
  0xfa, 0xcb, 0xcc, 0x3d, 0x76, 0x36, 0x42, 0x3e, 0x7d, 0x1e, 0x18, 0x3e,
  0x98, 0xe2, 0x0c, 0x3e, 0xb4, 0x33, 0x0b, 0xbd, 0x70, 0x9a, 0x50, 0x3e,
  0x53, 0x7a, 0xc1, 0x3e, 0xf1, 0xc7, 0x21, 0x3e, 0xa5, 0xa5, 0x90, 0x3e,
  0x54, 0x06, 0xb2, 0x3e, 0xec, 0xdb, 0x6a, 0xbe, 0x55, 0x23, 0x07, 0xbe,
  0xb9, 0x8d, 0x2c, 0xbe, 0x3f, 0xfd, 0xaf, 0x3c, 0x9a, 0x10, 0x0b, 0x3e,
  0x46, 0x2e, 0xa0, 0xbd, 0x50, 0xf2, 0xfc, 0x3d, 0x72, 0x27, 0x6d, 0xbe,
  0x18, 0xa1, 0xbc, 0x3e, 0xb6, 0x76, 0x1e, 0x3c, 0x08, 0x81, 0x31, 0xbd,
  0xbd, 0xb5, 0x9f, 0x3c, 0xb5, 0xaf, 0x13, 0x3e, 0xe6, 0xf6, 0x0e, 0xbe,
  0xab, 0x11, 0x0c, 0xbc, 0x91, 0xed, 0xba, 0xbd, 0xf6, 0x0e, 0x34, 0xbd,
  0x1d, 0xac, 0x00, 0xbd, 0xbe, 0xc6, 0x69, 0xbe, 0xfb, 0xb8, 0x9b, 0x3c,
  0xc4, 0x3e, 0xa5, 0x3d, 0x16, 0xef, 0x1f, 0xbe, 0xc0, 0x5f, 0x25, 0xbf,
  0x90, 0x1e, 0x25, 0x3e, 0x6c, 0x3f, 0xd8, 0xbd, 0xed, 0x0b, 0xfb, 0xbe,
  0x2a, 0x29, 0x04, 0xbd, 0xbd, 0x9e, 0xb6, 0xbd, 0xb2, 0xcd, 0xf0, 0xbe,
  0xef, 0xab, 0xfd, 0xbe, 0x34, 0xdd, 0x02, 0xbe, 0x2d, 0x8d, 0xce, 0xbd,
  0x9c, 0x3a, 0x37, 0xbe, 0xb7, 0x10, 0x04, 0xbd, 0x5d, 0x06, 0x24, 0xbe,
  0xeb, 0xee, 0x3f, 0xbe, 0x76, 0xb6, 0xed, 0xbe, 0xf4, 0xb4, 0x07, 0xbe,
  0xdb, 0xfc, 0x04, 0xbf, 0x9e, 0xd6, 0x84, 0xbd, 0xe8, 0x99, 0x4d, 0xbe,
  0x27, 0x1c, 0x06, 0x3d, 0xa0, 0xba, 0xa4, 0xbc, 0x2a, 0x67, 0xae, 0xbd,
  0xc7, 0x3d, 0x92, 0xbe, 0x1c, 0xd3, 0xd6, 0xbe, 0xe2, 0xd9, 0x21, 0xbe,
  0x2a, 0x2b, 0x5c, 0xbe, 0x3b, 0xd5, 0xc3, 0xbc, 0x68, 0x85, 0x80, 0x3c,
  0x30, 0x5f, 0x59, 0xbe, 0x70, 0x5e, 0xa9, 0xbd, 0x93, 0xeb, 0x5c, 0xbe,
  0x01, 0xe9, 0x8d, 0xbe, 0xeb, 0x71, 0xd1, 0xbe, 0x06, 0x0f, 0x4d, 0xbd,
  0x74, 0xfd, 0xbe, 0xbe, 0x96, 0x59, 0x50, 0x3d, 0xa6, 0x6f, 0xd9, 0xbc,
  0x8c, 0x0e, 0x0e, 0xbd, 0x9c, 0xa5, 0x3f, 0xbe, 0x3c, 0x17, 0x31, 0xbe,
  0xc8, 0x02, 0x1b, 0xbe, 0x37, 0x8b, 0x36, 0xbe, 0xdc, 0x33, 0x5c, 0xbd,
  0xec, 0xd3, 0xcc, 0xbb, 0x9d, 0x63, 0x34, 0xbe, 0x21, 0xde, 0xb6, 0x3d,
  0x64, 0x95, 0x5a, 0xbb, 0x72, 0x0e, 0x4f, 0xbe, 0x00, 0x8e, 0x84, 0xbd,
  0xc6, 0xba, 0x18, 0xbe, 0xc7, 0x0e, 0x03, 0xbe, 0xff, 0x9b, 0x06, 0x3c,
  0x88, 0x3c, 0x07, 0xbc, 0x30, 0xe8, 0xb6, 0xbd, 0x29, 0x7a, 0x40, 0x3d,
  0xfb, 0x35, 0x46, 0xbe, 0x12, 0xf6, 0x34, 0xbe, 0x2e, 0xbc, 0xce, 0xbc,
  0x05, 0x8e, 0x73, 0xbc, 0xc1, 0xeb, 0x5e, 0x3b, 0x18, 0x47, 0x84, 0xbd,
  0xe8, 0xcf, 0x17, 0x3e, 0x69, 0x96, 0x49, 0x3d, 0xf5, 0x05, 0xa4, 0xbe,
  0xda, 0xe9, 0xdc, 0xbd, 0x6c, 0x2c, 0x72, 0x3d, 0x68, 0x7e, 0x16, 0x3d,
  0x16, 0x30, 0x15, 0xbe, 0xe0, 0x32, 0x92, 0xbc, 0x5b, 0xb7, 0x64, 0xbd,
  0xec, 0x64, 0x51, 0x3d, 0xb3, 0x39, 0x33, 0xbe, 0x61, 0xca, 0xf9, 0xbc,
  0x9e, 0x45, 0x63, 0xbe, 0x59, 0xa8, 0xfa, 0xbc, 0x4b, 0xe9, 0x9b, 0xbd,
  0x15, 0x4b, 0x87, 0xbd, 0x2f, 0x5c, 0xcd, 0x3d, 0x09, 0x06, 0x73, 0x3c,
  0x9d, 0x0b, 0x7e, 0x3e, 0xba, 0x3c, 0xc4, 0x3d, 0x2a, 0x46, 0x11, 0x3e,
  0x37, 0x21, 0x93, 0x3d, 0x2d, 0x49, 0xf0, 0xbd, 0x96, 0x18, 0x55, 0xbe,
  0x49, 0x4d, 0xb7, 0xbd, 0x8f, 0x91, 0x0f, 0xbe, 0x6b, 0x2b, 0xa1, 0xbd,
  0x61, 0xa4, 0xfb, 0xbc, 0x10, 0xa8, 0x2d, 0xbe, 0xd7, 0x2e, 0x83, 0xbe,
  0x26, 0xa1, 0xf8, 0xbd, 0xa8, 0xaf, 0x28, 0x3f, 0x14, 0xe9, 0xf4, 0xbd,
  0xd5, 0xda, 0x6f, 0xbe, 0xf1, 0x26, 0xca, 0x3e, 0x8f, 0xcd, 0x11, 0x3f,
  0x91, 0x37, 0x9a, 0xbd, 0x9b, 0x8e, 0x5e, 0xbe, 0x2a, 0x1f, 0xc5, 0xbc,
  0xe9, 0x09, 0x94, 0xbe, 0x95, 0x9a, 0x8a, 0xbe, 0x0e, 0xf8, 0xb4, 0x3b,
  0xc4, 0x06, 0xa2, 0xbe, 0x5a, 0x83, 0x3f, 0xbe, 0x34, 0x1b, 0x7f, 0xbe,
  0xd5, 0xd8, 0x87, 0xbd, 0xbd, 0xc2, 0xb0, 0xbe, 0x08, 0xde, 0x00, 0x3f,
  0xc7, 0x45, 0x2a, 0x3e, 0x8e, 0xd9, 0x8b, 0xbe, 0x72, 0xd6, 0x94, 0x3e,
  0xaf, 0xee, 0x12, 0x3f, 0xf1, 0xc7, 0xca, 0x3c, 0x8b, 0x2d, 0x1f, 0x3e,
  0x9f, 0x8c, 0x7c, 0x3d, 0x87, 0x9f, 0xc2, 0xbe, 0x06, 0x61, 0x92, 0x3c,
  0x42, 0x98, 0x0b, 0x3e, 0x4a, 0x70, 0xc9, 0xbd, 0x17, 0x90, 0x74, 0xbd,
  0x95, 0x5e, 0x27, 0xbe, 0xee, 0x1c, 0xd5, 0xbd, 0x34, 0xa1, 0x76, 0xbe,
  0x9a, 0x5a, 0x1d, 0x3f, 0xdd, 0xaf, 0xe5, 0x3d, 0x00, 0xc2, 0x85, 0xbe,
  0x2f, 0x88, 0x33, 0x3e, 0x28, 0x9e, 0x3b, 0x3f, 0x30, 0x63, 0x4c, 0x3c,
  0xeb, 0x9f, 0xdb, 0xbb, 0xaf, 0x74, 0xee, 0xbd, 0x61, 0xe8, 0x39, 0xbe,
  0x60, 0x1c, 0x87, 0xbc, 0x5e, 0x78, 0xdb, 0xbd, 0x69, 0xc3, 0xcb, 0xba,
  0x91, 0xca, 0x16, 0xbe, 0x5e, 0xdc, 0xc5, 0xbb, 0xdd, 0x02, 0x55, 0x3d,
  0x0b, 0x37, 0x85, 0xbe, 0x64, 0x40, 0x00, 0x3f, 0xe8, 0xb3, 0x3c, 0xbe,
  0x00, 0x6f, 0x2e, 0x3e, 0x02, 0x0e, 0xf6, 0x3e, 0x62, 0xe6, 0xa3, 0x3e,
  0x7c, 0xd3, 0x24, 0xbe, 0xd7, 0x4d, 0x1b, 0x3e, 0xd3, 0x4d, 0x34, 0xbe,
  0x58, 0xbe, 0xc3, 0xbe, 0x2f, 0xc6, 0xb5, 0xbe, 0x89, 0x74, 0xcb, 0xbd,
  0x22, 0x79, 0x81, 0xbe, 0x17, 0x79, 0x11, 0xbe, 0x46, 0x54, 0x87, 0x3d,
  0x72, 0x8c, 0x6b, 0x3d, 0x65, 0x3e, 0x84, 0xbe, 0x92, 0x0c, 0x22, 0x3f,
  0xf6, 0xab, 0x24, 0x3e, 0x7b, 0x95, 0x67, 0xbe, 0xcb, 0x7c, 0x04, 0x3e,
  0xdf, 0x79, 0x73, 0x3e, 0xf7, 0xc7, 0x62, 0xbd, 0xd3, 0x7d, 0xfa, 0x3d,
  0xf3, 0xeb, 0x1f, 0xbd, 0x96, 0x7f, 0xe1, 0xbd, 0xd2, 0xc5, 0x41, 0xbe,
  0x10, 0xce, 0xe4, 0xbd, 0x1d, 0x39, 0x8e, 0xbe, 0x2e, 0x8c, 0xbe, 0x3c,
  0xca, 0x39, 0xf6, 0xbd, 0x81, 0x81, 0x78, 0xbe, 0xdf, 0x59, 0xd2, 0xbd,
  0xfe, 0x66, 0x1d, 0x3f, 0xe6, 0xb0, 0xc9, 0xbc, 0x55, 0x7a, 0xc3, 0xbe,
  0xfe, 0x54, 0xa1, 0x3e, 0xff, 0x49, 0xb0, 0x3e, 0xfa, 0x57, 0x90, 0x3d,
  0x23, 0xb1, 0xbd, 0x3d, 0xf0, 0xab, 0x68, 0xbe, 0x77, 0xab, 0xcc, 0xbe,
  0x3e, 0x09, 0x8d, 0xbe, 0xcf, 0x5f, 0x5c, 0xbe, 0xe5, 0x04, 0x7f, 0xbe,
  0x90, 0xa7, 0x54, 0xbe, 0xa3, 0x22, 0xe5, 0xbc, 0x6a, 0x93, 0x67, 0xbd,
  0xb2, 0x5f, 0xd2, 0xbe, 0x43, 0x7d, 0x2e, 0xbc, 0x86, 0x74, 0xd2, 0x3d,
  0x94, 0x78, 0x23, 0x3e, 0xe5, 0x74, 0x06, 0xbe, 0xb7, 0x86, 0xfd, 0x3d,
  0xcf, 0x8b, 0x2c, 0x3d, 0xb4, 0x2b, 0xac, 0x3e, 0xde, 0x14, 0xe6, 0xbb,
  0xbb, 0x2b, 0x25, 0x3c, 0xa2, 0xb1, 0x19, 0xbd, 0x35, 0x23, 0x7a, 0x3e,
  0xac, 0x79, 0x50, 0xbd, 0xfd, 0x98, 0x39, 0x3e, 0x6f, 0xf5, 0x0c, 0x3e,
  0x7d, 0x34, 0x05, 0x3e, 0xdf, 0xc7, 0x66, 0x3d, 0x06, 0x68, 0x52, 0x3d,
  0xf9, 0xa5, 0x55, 0x3e, 0x20, 0x07, 0x9a, 0xbd, 0xd0, 0xe5, 0xe7, 0xbe,
  0x1e, 0xce, 0x80, 0x3d, 0x84, 0xa7, 0x22, 0xbd, 0x18, 0x82, 0x06, 0x3e,
  0xc5, 0xc9, 0xac, 0x3b, 0xbf, 0x94, 0xaa, 0xbc, 0xd9, 0xc0, 0xdb, 0xbc,
  0xb7, 0xea, 0x3d, 0x3c, 0x9f, 0x66, 0xd5, 0xbd, 0x0c, 0x26, 0xe9, 0xbc,
  0xd0, 0x2c, 0xe0, 0x3d, 0xd0, 0xf0, 0x7e, 0x3d, 0x33, 0xda, 0x55, 0xbd,
  0x35, 0x28, 0x92, 0xbe, 0x2d, 0xbd, 0xf3, 0x3a, 0xcf, 0x4e, 0xfd, 0xbd,
  0xd8, 0x85, 0xb5, 0xbe, 0xd1, 0x3f, 0x56, 0x3e, 0x86, 0xc0, 0x7e, 0xbd,
  0xd4, 0xbc, 0x77, 0xbd, 0x18, 0x1b, 0x6e, 0xbd, 0x68, 0x4c, 0xc2, 0xbc,
  0x9d, 0xe2, 0xed, 0xbc, 0xa2, 0x19, 0x03, 0xbe, 0xb8, 0xa8, 0x09, 0xbe,
  0xe3, 0xb0, 0xfb, 0x3c, 0xac, 0x6f, 0x61, 0x3d, 0xe2, 0xa2, 0xe4, 0x3d,
  0xd4, 0x17, 0xf1, 0xbc, 0xd8, 0x06, 0xa6, 0xbe, 0xfb, 0x4a, 0xc1, 0x3d,
  0x8e, 0x2e, 0x4d, 0xbc, 0x5e, 0x14, 0xa1, 0xbe, 0x4a, 0xd4, 0xfe, 0x3d,
  0x81, 0xec, 0x29, 0x3e, 0xc7, 0x1b, 0x85, 0xbe, 0xcd, 0xee, 0xb7, 0xbe,
  0xcc, 0x9f, 0xe9, 0xbc, 0x06, 0xd8, 0x35, 0xbd, 0x7c, 0x88, 0x95, 0xbe,
  0xd4, 0x67, 0x89, 0xbe, 0x14, 0x35, 0x5a, 0xbe, 0x01, 0xd9, 0x23, 0x3e,
  0x76, 0x7b, 0x15, 0x3e, 0x93, 0x60, 0xbf, 0xbc, 0xcc, 0x3b, 0x45, 0xbe,
  0x3a, 0xe8, 0x55, 0x3e, 0x4e, 0x7b, 0x37, 0x3d, 0xaa, 0x16, 0xba, 0xbe,
  0x64, 0x2d, 0x7f, 0x3e, 0x69, 0x65, 0xfd, 0x3d, 0x49, 0xd0, 0xeb, 0x3d,
  0x9a, 0x5c, 0xd1, 0xbd, 0x93, 0x65, 0x3e, 0xbd, 0x8e, 0xf1, 0x69, 0xbd,
  0xee, 0x3b, 0xa9, 0xbe, 0xf5, 0x3e, 0x1f, 0xbe, 0xe5, 0xf8, 0x85, 0xbd,
  0x9f, 0xf4, 0xd1, 0x3c, 0x17, 0x9d, 0x0a, 0x3e, 0x99, 0x76, 0xa1, 0xbc,
  0xb4, 0x09, 0x30, 0x3d, 0x36, 0x3d, 0x5f, 0x3e, 0xcb, 0x4f, 0x44, 0x3e,
  0xe5, 0xe6, 0x09, 0xbf, 0x99, 0x5d, 0x00, 0x3e, 0x0c, 0xa5, 0xe7, 0x3d,
  0x51, 0x64, 0xb7, 0x3d, 0x78, 0x90, 0x4d, 0xbd, 0x61, 0x69, 0xdb, 0x3c,
  0x39, 0xe6, 0x8a, 0xbc, 0x51, 0x03, 0xb3, 0x3d, 0xcd, 0x16, 0xa3, 0xbd,
  0x06, 0x17, 0x43, 0xbd, 0x51, 0xe8, 0x60, 0x3c, 0x1e, 0xa1, 0xcf, 0x3c,
  0xce, 0x2c, 0x00, 0x3d, 0xbc, 0x4a, 0x02, 0xbe, 0x31, 0x3b, 0xab, 0xbc,
  0xd5, 0x26, 0x83, 0x3a, 0x74, 0xa3, 0x90, 0xbe, 0x49, 0xe2, 0xb6, 0x3d,
  0xa4, 0xb5, 0xeb, 0x3d, 0x9b, 0x85, 0x07, 0xbd, 0xde, 0xa8, 0x90, 0x3d,
  0x1c, 0xc2, 0x25, 0x3d, 0x58, 0xe2, 0xd8, 0x3b, 0x92, 0x04, 0xbc, 0x3c,
  0x81, 0x4d, 0x8d, 0x3c, 0x58, 0xe1, 0x95, 0xbc, 0xe3, 0x96, 0x9e, 0x3d,
  0x28, 0xff, 0xef, 0xbc, 0x56, 0x50, 0x1c, 0xbd, 0xbe, 0x1d, 0x93, 0xbd,
  0x1e, 0xf4, 0x93, 0x3e, 0x18, 0xc4, 0x82, 0x3e, 0xb1, 0xf3, 0x9b, 0xbe,
  0xd1, 0x09, 0xa9, 0x3d, 0x4d, 0xc0, 0x24, 0x3e, 0xbe, 0xad, 0x8e, 0xbd,
  0x6e, 0x12, 0x8f, 0xbe, 0x4b, 0x75, 0x7b, 0x3d, 0x4f, 0x3c, 0x3a, 0xbc,
  0x7d, 0x27, 0x02, 0xbe, 0xd3, 0x90, 0x8b, 0xbe, 0x89, 0x4f, 0x6d, 0xbd,
  0x32, 0x5e, 0xdb, 0x3e, 0x99, 0xe5, 0xa3, 0x3d, 0xa7, 0x67, 0xc6, 0xbc,
  0xb9, 0xb8, 0x0f, 0x3e, 0xf5, 0x81, 0x96, 0x3e, 0x7a, 0xc1, 0x12, 0xbd,
  0x9b, 0x42, 0xcf, 0xbe, 0x08, 0x3d, 0xd1, 0x3d, 0x5a, 0x6b, 0x2c, 0xbd,
  0x8c, 0x65, 0xa1, 0xbe, 0xe1, 0x48, 0x9f, 0xbe, 0xe8, 0x23, 0xe2, 0xbd,
  0x41, 0x4a, 0x6f, 0xbe, 0x03, 0x68, 0x0f, 0x3e, 0xdc, 0xa4, 0x86, 0x3d,
  0x72, 0xe3, 0x6a, 0xbd, 0xd6, 0x64, 0x80, 0x3d, 0xcb, 0x94, 0x19, 0xbe,
  0xc8, 0x52, 0x4c, 0xbd, 0x9e, 0xfc, 0x8a, 0xbe, 0xe4, 0x7d, 0xbf, 0x3e,
  0x5b, 0x11, 0xa1, 0x3e, 0xcc, 0xee, 0xa3, 0xbe, 0xca, 0xe3, 0xef, 0x3e,
  0x41, 0xb4, 0x19, 0x3c, 0x79, 0xb8, 0xd8, 0x3d, 0x1a, 0xfb, 0xac, 0xbe,
  0x9c, 0x85, 0xb9, 0x3b, 0x73, 0xba, 0xb3, 0x3c, 0xb1, 0x0e, 0x90, 0x3e,
  0xd2, 0x71, 0x3b, 0x3e, 0xa4, 0xe4, 0x8c, 0xbe, 0x6f, 0x36, 0x88, 0xbc,
  0xe4, 0x05, 0x30, 0xbd, 0x61, 0xbc, 0x25, 0xbe, 0x81, 0xb3, 0x45, 0xbe,
  0x09, 0x32, 0x84, 0x3e, 0xa2, 0x41, 0xa2, 0x3e, 0xb1, 0x61, 0xe9, 0xbd,
  0xbc, 0x91, 0xe7, 0x3e, 0x4a, 0xa1, 0xfc, 0xbc, 0x4e, 0x26, 0x11, 0x3e,
  0xfd, 0x9a, 0x4f, 0xbe, 0xb3, 0x01, 0x7f, 0x3d, 0xb1, 0x2d, 0xdd, 0xbb,
  0x85, 0x0d, 0xa6, 0x3d, 0xe4, 0x56, 0xfc, 0x3d, 0x79, 0x63, 0x98, 0xbe,
  0xa0, 0x6b, 0x7f, 0x3e, 0xa1, 0xc5, 0x10, 0x3e, 0x92, 0xbd, 0xe2, 0xba,
  0x7d, 0x05, 0x16, 0x3d, 0xca, 0x83, 0x8c, 0x3e, 0xf5, 0xd1, 0x84, 0x3e,
  0xa6, 0xb4, 0xcc, 0xbe, 0xc7, 0x8b, 0x99, 0x3e, 0xf1, 0x39, 0xb1, 0x3d,
  0xd7, 0xfa, 0xa4, 0xbd, 0x54, 0xe4, 0x8a, 0xbe, 0x19, 0xe5, 0x7c, 0xbc,
  0x80, 0xba, 0xb1, 0x3d, 0x94, 0x47, 0x88, 0xbe, 0x1f, 0xcc, 0x9e, 0xbe,
  0x23, 0x2e, 0x2f, 0x3e, 0x5e, 0xd8, 0x82, 0x3e, 0x04, 0x47, 0x01, 0x3e,
  0x0a, 0x58, 0x71, 0x3c, 0x76, 0x9e, 0x7c, 0xbe, 0xa7, 0x06, 0xef, 0x3e,
  0x99, 0x8d, 0xef, 0x3d, 0x96, 0xe2, 0x16, 0xbf, 0x77, 0x37, 0x6b, 0x3e,
  0x17, 0x13, 0x23, 0x3e, 0xb8, 0x70, 0x72, 0xbe, 0xa4, 0x62, 0x9d, 0xbe,
  0xe9, 0xb8, 0x42, 0x3c, 0x80, 0xf1, 0xe0, 0xbd, 0x77, 0xd5, 0xda, 0xbd,
  0xd1, 0x4a, 0x35, 0xbe, 0xfc, 0xc9, 0x72, 0xbe, 0x66, 0xc5, 0xae, 0x3e,
  0x24, 0x22, 0x49, 0xbe, 0x5e, 0x2e, 0xff, 0x3c, 0x0e, 0xe9, 0x07, 0xbd,
  0x1c, 0x85, 0xf2, 0x3d, 0x88, 0xdf, 0x16, 0x3d, 0x6e, 0xc1, 0xc8, 0xbe,
  0x87, 0xce, 0x20, 0x3e, 0xa3, 0x11, 0x64, 0xbd, 0x30, 0xf8, 0xf5, 0xbd,
  0xc6, 0xf2, 0x6f, 0xbd, 0x37, 0x3b, 0x42, 0x3d, 0x11, 0x80, 0x98, 0xbd,
  0xc9, 0x19, 0x2c, 0xbe, 0x6c, 0xea, 0xf0, 0x3c, 0x5f, 0x1c, 0x69, 0xbe,
  0x01, 0x40, 0xa7, 0x3d, 0xcb, 0xbf, 0x6d, 0xbd, 0x74, 0x83, 0x62, 0xbd,
  0x3a, 0x07, 0x37, 0xbd, 0x29, 0x2f, 0x3b, 0xbd, 0x25, 0xa2, 0x47, 0xbe,
  0xd7, 0x59, 0xbf, 0xb9, 0xe5, 0xe1, 0x84, 0x3e, 0x79, 0xf8, 0x32, 0xbe,
  0xaf, 0xf9, 0x51, 0x3d, 0xcb, 0x7d, 0xfa, 0xbc, 0x5c, 0x31, 0xb1, 0xbe,
  0xbc, 0x74, 0x88, 0xbe, 0xc3, 0x4d, 0x48, 0xbd, 0xfd, 0x79, 0x23, 0xbe,
  0x36, 0x5b, 0xfc, 0xbd, 0xa4, 0xc4, 0x93, 0x3d, 0x59, 0x42, 0xa9, 0xbe,
  0xee, 0x82, 0x0b, 0x3d, 0x3d, 0x9c, 0xda, 0x3e, 0xfd, 0xee, 0x12, 0xbe,
  0x4a, 0xcc, 0x95, 0x3d, 0x49, 0x6e, 0x4c, 0x3e, 0xba, 0xa7, 0x13, 0x3e,
  0xa7, 0x82, 0x41, 0x3e, 0x06, 0x2a, 0x4e, 0xbe, 0xd8, 0x03, 0xc9, 0xbd,
  0x65, 0xfd, 0x94, 0xbe, 0x71, 0xa4, 0xb3, 0xbe, 0x03, 0x94, 0x01, 0xbe,
  0xa1, 0x99, 0xa0, 0xbe, 0xdd, 0x39, 0x4e, 0xbe, 0x0b, 0x56, 0xe9, 0xbd,
  0x7d, 0x97, 0xa3, 0xbd, 0x3b, 0x0a, 0xeb, 0xbd, 0xad, 0x52, 0xb9, 0x3e,
  0x46, 0xe0, 0x47, 0x3e, 0xe2, 0x3c, 0x9b, 0xbd, 0x84, 0x6f, 0x9e, 0xbd,
  0xe5, 0x28, 0x0d, 0x3f, 0x47, 0x5b, 0xa4, 0x3d, 0x50, 0x46, 0x3d, 0xbd,
  0x8e, 0x8f, 0xd2, 0x3d, 0xf7, 0x64, 0x69, 0xbe, 0x66, 0xe4, 0x1c, 0xbe,
  0x39, 0x6c, 0x2b, 0x3e, 0xb4, 0xd7, 0xba, 0xbe, 0xb2, 0x3f, 0x77, 0xbd,
  0xd0, 0x6c, 0xcd, 0x3d, 0x86, 0x7a, 0x8e, 0x3d, 0x5f, 0x0a, 0xa6, 0xbd,
  0x8a, 0xb9, 0xfa, 0x3e, 0xaa, 0xeb, 0xb1, 0xbc, 0xf5, 0x7a, 0xe1, 0x3d,
  0x35, 0xfb, 0xc9, 0xbd, 0x15, 0x55, 0xc3, 0x3e, 0x86, 0x23, 0x0d, 0x3e,
  0x40, 0xf5, 0x92, 0xbd, 0x58, 0x79, 0x4e, 0xbe, 0x16, 0xb5, 0x30, 0xbe,
  0xc6, 0x0e, 0x90, 0xbd, 0x8c, 0xad, 0x58, 0x3e, 0xaa, 0xea, 0x7d, 0xbe,
  0xc8, 0x45, 0x17, 0xbd, 0x4b, 0xcb, 0x39, 0xbd, 0x68, 0x9b, 0x76, 0xbe,
  0x50, 0xfd, 0x01, 0x3d, 0x8d, 0xe3, 0x17, 0x3f, 0x80, 0x7e, 0xdd, 0x3e,
  0xdd, 0xd5, 0x8f, 0x3e, 0xcd, 0xaa, 0xec, 0xbd, 0x38, 0x33, 0x3a, 0x3e,
  0x95, 0xf9, 0x31, 0xbe, 0xf5, 0x7d, 0x2b, 0x3e, 0x43, 0x45, 0x3b, 0x3d,
  0xef, 0xf9, 0x0d, 0xbe, 0x3b, 0x83, 0x75, 0xbe, 0x07, 0x90, 0xd3, 0xbd,
  0x7a, 0x37, 0xf3, 0xbb, 0x18, 0x8f, 0x50, 0xbe, 0x19, 0x1a, 0xe8, 0x3d,
  0x42, 0xed, 0xfe, 0xbd, 0xb1, 0x3b, 0x77, 0xbd, 0x47, 0xc8, 0x12, 0x3f,
  0xbb, 0xcc, 0xfe, 0x3e, 0x65, 0x07, 0xc8, 0x3d, 0x42, 0xe3, 0x15, 0x3e,
  0x21, 0x64, 0x53, 0x3e, 0x32, 0x20, 0x41, 0x3d, 0xf9, 0x3f, 0x4a, 0xbe,
  0xd9, 0x22, 0x4e, 0xbe, 0x1e, 0xae, 0x60, 0xbe, 0xd3, 0x4b, 0x92, 0xbe,
  0x4e, 0x60, 0xbc, 0xbd, 0xfa, 0x48, 0x04, 0xbe, 0xb1, 0xbb, 0x02, 0xbe,
  0x0a, 0x7b, 0x69, 0x3d, 0x56, 0xff, 0x83, 0x3c, 0xcf, 0xed, 0x6c, 0xbe,
  0x7d, 0xd4, 0x1b, 0x3f, 0x43, 0x84, 0x64, 0xbd, 0xc4, 0x30, 0xd3, 0xbc,
  0x61, 0x8c, 0x86, 0x3d, 0x9a, 0x55, 0xab, 0x3e, 0x39, 0x04, 0xa0, 0xbd,
  0x8e, 0x67, 0xe4, 0xbd, 0x10, 0x36, 0xa0, 0xbd, 0x06, 0x84, 0xb7, 0xbd,
  0x29, 0x60, 0x86, 0xbe, 0x51, 0xb8, 0xe7, 0xbd, 0x82, 0xc2, 0x4b, 0xbc,
  0x06, 0x14, 0x9a, 0xbe, 0xb2, 0xdb, 0x2a, 0x3e, 0x73, 0xfd, 0x83, 0xbe,
  0xac, 0x68, 0xaf, 0xbe, 0x64, 0x39, 0x64, 0xbe, 0xea, 0x9e, 0x26, 0xbf,
  0x2f, 0x04, 0x07, 0xbf, 0xd3, 0x61, 0xca, 0x3e, 0xc5, 0xb8, 0x61, 0xbe,
  0x98, 0x2c, 0xa2, 0xbc, 0xb6, 0xc2, 0x1e, 0xbc, 0x46, 0x5f, 0x3a, 0xbe,
  0xae, 0x5b, 0xed, 0xbb, 0xca, 0x05, 0x52, 0x3c, 0x1a, 0x3e, 0xba, 0xbe,
  0xdd, 0x30, 0xad, 0x3d, 0x71, 0x33, 0xa2, 0xbe, 0xd1, 0x45, 0xa1, 0xbe,
  0x03, 0x25, 0x6e, 0xbe, 0x16, 0xcf, 0x21, 0x3d, 0x82, 0x42, 0x88, 0x3e,
  0x0a, 0x39, 0x07, 0xbf, 0x12, 0x3d, 0x5f, 0x3b, 0x65, 0x1d, 0x8b, 0x3e,
  0x58, 0x6a, 0x1c, 0xbf, 0xbc, 0x32, 0x10, 0x3e, 0x66, 0xd4, 0x87, 0x3d,
  0xf5, 0xd7, 0xa5, 0x39, 0x31, 0x7d, 0x9d, 0x3d, 0x98, 0x60, 0x61, 0x3d,
  0xbc, 0x13, 0xf0, 0x3d, 0xe3, 0xf1, 0x8c, 0x3d, 0x36, 0xc7, 0xa7, 0x3c,
  0x02, 0x65, 0x08, 0xbf, 0x8d, 0xf4, 0xce, 0xbe, 0x5c, 0x1e, 0x8d, 0x3c,
  0x90, 0x09, 0x71, 0x3e, 0x2e, 0x1e, 0x32, 0xbe, 0x5d, 0xce, 0xf6, 0x3d,
  0x89, 0x1f, 0xdd, 0x3e, 0x77, 0xd5, 0x7b, 0xbe, 0x5e, 0xd9, 0x90, 0x3e,
  0xf8, 0x8d, 0x8c, 0x3e, 0xce, 0xd8, 0x92, 0x3e, 0x16, 0x56, 0x1b, 0x3d,
  0xa1, 0x82, 0x33, 0x3d, 0xe2, 0x9d, 0x73, 0x3e, 0x44, 0x4a, 0xee, 0x3d,
  0xba, 0x76, 0x7b, 0xbd, 0x8d, 0xe6, 0xda, 0xbe, 0xda, 0x03, 0x71, 0xbe,
  0x91, 0x17, 0x24, 0xbd, 0x75, 0x55, 0x4e, 0x3e, 0x80, 0xd8, 0x7f, 0xbe,
  0xb5, 0x50, 0xdd, 0x3d, 0x2f, 0x19, 0x94, 0x3e, 0xb5, 0x8a, 0xcc, 0xbd,
  0x9b, 0x94, 0x3f, 0xbe, 0x06, 0xf8, 0x47, 0x3e, 0x7c, 0x24, 0x2c, 0x3f,
  0x28, 0x1a, 0x9c, 0x3d, 0xc5, 0xdc, 0x3c, 0x3d, 0x6b, 0x14, 0xe8, 0x3e,
  0x05, 0x3c, 0x40, 0x3e, 0x84, 0xa0, 0x01, 0x3d, 0x3d, 0x06, 0x80, 0xbe,
  0xd5, 0xf4, 0x3c, 0xbe, 0x0e, 0x76, 0x15, 0xbd, 0xf8, 0x04, 0x3e, 0x3e,
  0x14, 0xdb, 0x82, 0xbe, 0x12, 0x06, 0x71, 0xbd, 0x25, 0xc8, 0xa1, 0x3e,
  0xa6, 0x63, 0xe8, 0xbe, 0x28, 0x88, 0x63, 0x3e, 0x68, 0x68, 0x0e, 0xbb,
  0x71, 0xb2, 0x80, 0x3e, 0x1e, 0x76, 0x3b, 0x3d, 0xc8, 0x64, 0x63, 0x3d,
  0x98, 0x7c, 0x41, 0x3e, 0x04, 0x0e, 0x5c, 0x3e, 0x33, 0x70, 0x4d, 0x3d,
  0x70, 0x80, 0x99, 0xbd, 0xc0, 0x6b, 0x81, 0xbe, 0xbc, 0x06, 0x24, 0xbc,
  0x08, 0x9e, 0xf9, 0x3e, 0xb6, 0x71, 0xa9, 0xbe, 0x37, 0xe6, 0xac, 0xbe,
  0x35, 0x8f, 0x4a, 0x3e, 0x5b, 0x92, 0x66, 0xbf, 0x4e, 0xec, 0xe0, 0xbd,
  0x83, 0x45, 0x34, 0xbe, 0x8e, 0xb0, 0xc1, 0x3d, 0x27, 0x0c, 0x86, 0xbb,
  0xc4, 0x1e, 0x70, 0x3d, 0x9c, 0x7d, 0xae, 0x3d, 0xcf, 0x98, 0x0c, 0x3e,
  0x5c, 0x13, 0xd6, 0x3d, 0xff, 0x56, 0xfa, 0xbd, 0xa4, 0x29, 0xd8, 0xbe,
  0x3f, 0x00, 0xc7, 0xbd, 0x08, 0x67, 0xca, 0x3e, 0xda, 0xd2, 0xc6, 0x3c,
  0x11, 0xea, 0xd3, 0xbc, 0x6b, 0x5d, 0x98, 0x3e, 0xee, 0x9b, 0x97, 0xbe,
  0x83, 0x83, 0xfe, 0xbd, 0xc0, 0x0d, 0xa6, 0x3d, 0xcb, 0xb0, 0x3c, 0xbe,
  0xe9, 0xbb, 0xd3, 0xbc, 0x98, 0x0f, 0x2e, 0x3d, 0x3b, 0x4b, 0x94, 0xbd,
  0xe9, 0xee, 0x96, 0xbc, 0x44, 0x76, 0xdb, 0xbc, 0xee, 0x3a, 0x62, 0xbe,
  0xec, 0xda, 0xf3, 0xbc, 0x8e, 0x01, 0x12, 0x3e, 0x54, 0xb0, 0x84, 0x3e,
  0x46, 0xfe, 0xff, 0xff, 0x10, 0x00, 0x00, 0x00, 0x05, 0x00, 0x00, 0x00,
  0x14, 0x00, 0x00, 0x00, 0x2c, 0x00, 0x00, 0x00, 0x02, 0x00, 0x00, 0x00,
  0x10, 0x00, 0x00, 0x00, 0x70, 0x00, 0x00, 0x00, 0x17, 0x00, 0x00, 0x00,
  0x73, 0x65, 0x71, 0x75, 0x65, 0x6e, 0x74, 0x69, 0x61, 0x6c, 0x2f, 0x64,
  0x65, 0x6e, 0x73, 0x65, 0x2f, 0x4d, 0x61, 0x74, 0x4d, 0x75, 0x6c, 0x00,
  0x34, 0xfe, 0xff, 0xff, 0x2a, 0xff, 0xff, 0xff, 0x04, 0x00, 0x00, 0x00,
  0x08, 0x00, 0x00, 0x00, 0xff, 0xff, 0xff, 0xff, 0x70, 0x00, 0x00, 0x00,
  0x00, 0x00, 0x0e, 0x00, 0x18, 0x00, 0x08, 0x00, 0x07, 0x00, 0x0c, 0x00,
  0x10, 0x00, 0x14, 0x00, 0x0e, 0x00, 0x00, 0x00, 0x00, 0x00, 0x00, 0x02,
  0x10, 0x00, 0x00, 0x00, 0x04, 0x00, 0x00, 0x00, 0x10, 0x00, 0x00, 0x00,
  0x2c, 0x00, 0x00, 0x00, 0x01, 0x00, 0x00, 0x00, 0x02, 0x00, 0x00, 0x00,
  0x18, 0x00, 0x00, 0x00, 0x73, 0x65, 0x71, 0x75, 0x65, 0x6e, 0x74, 0x69,
  0x61, 0x6c, 0x2f, 0x66, 0x6c, 0x61, 0x74, 0x74, 0x65, 0x6e, 0x2f, 0x43,
  0x6f, 0x6e, 0x73, 0x74, 0x00, 0x00, 0x00, 0x00, 0x9c, 0xfe, 0xff, 0xff,
  0x92, 0xff, 0xff, 0xff, 0x04, 0x00, 0x00, 0x00, 0x10, 0x00, 0x00, 0x00,
  0x47, 0x5b, 0x18, 0xc0, 0xef, 0x3a, 0x79, 0xc0, 0x43, 0xe4, 0x27, 0xbf,
  0xcd, 0x5d, 0x30, 0x40, 0x0a, 0xff, 0xff, 0xff, 0x10, 0x00, 0x00, 0x00,
  0x03, 0x00, 0x00, 0x00, 0x10, 0x00, 0x00, 0x00, 0x3c, 0x00, 0x00, 0x00,
  0x01, 0x00, 0x00, 0x00, 0x04, 0x00, 0x00, 0x00, 0x29, 0x00, 0x00, 0x00,
  0x73, 0x65, 0x71, 0x75, 0x65, 0x6e, 0x74, 0x69, 0x61, 0x6c, 0x2f, 0x64,
  0x65, 0x6e, 0x73, 0x65, 0x5f, 0x31, 0x2f, 0x42, 0x69, 0x61, 0x73, 0x41,
  0x64, 0x64, 0x2f, 0x52, 0x65, 0x61, 0x64, 0x56, 0x61, 0x72, 0x69, 0x61,
  0x62, 0x6c, 0x65, 0x4f, 0x70, 0x00, 0x00, 0x00, 0x60, 0xff, 0xff, 0xff,
  0x00, 0x00, 0x06, 0x00, 0x08, 0x00, 0x04, 0x00, 0x06, 0x00, 0x00, 0x00,
  0x04, 0x00, 0x00, 0x00, 0x40, 0x00, 0x00, 0x00, 0xc3, 0x73, 0xd0, 0x3f,
  0x1d, 0x97, 0x5a, 0x3f, 0x66, 0xf1, 0xa9, 0xbf, 0x96, 0x48, 0xc0, 0x3f,
  0xff, 0x15, 0xd1, 0x3f, 0xc5, 0x5b, 0x0c, 0xbe, 0x8a, 0xc1, 0xec, 0xbe,
  0xb5, 0x61, 0x51, 0xbf, 0xec, 0x48, 0xe2, 0xbe, 0x1a, 0xf4, 0x9c, 0x3f,
  0xc0, 0xcb, 0x8d, 0xbf, 0x9c, 0xf7, 0xb8, 0x3f, 0x3c, 0x2f, 0x37, 0xbf,
  0xa9, 0xd9, 0xd8, 0x3e, 0xba, 0x2e, 0xaf, 0x3f, 0xd7, 0x85, 0x7d, 0x40,
  0xae, 0xff, 0xff, 0xff, 0x10, 0x00, 0x00, 0x00, 0x02, 0x00, 0x00, 0x00,
  0x10, 0x00, 0x00, 0x00, 0x3c, 0x00, 0x00, 0x00, 0x01, 0x00, 0x00, 0x00,
  0x10, 0x00, 0x00, 0x00, 0x27, 0x00, 0x00, 0x00, 0x73, 0x65, 0x71, 0x75,
  0x65, 0x6e, 0x74, 0x69, 0x61, 0x6c, 0x2f, 0x64, 0x65, 0x6e, 0x73, 0x65,
  0x2f, 0x42, 0x69, 0x61, 0x73, 0x41, 0x64, 0x64, 0x2f, 0x52, 0x65, 0x61,
  0x64, 0x56, 0x61, 0x72, 0x69, 0x61, 0x62, 0x6c, 0x65, 0x4f, 0x70, 0x00,
  0x04, 0x00, 0x06, 0x00, 0x04, 0x00, 0x00, 0x00, 0x00, 0x00, 0x0e, 0x00,
  0x14, 0x00, 0x04, 0x00, 0x00, 0x00, 0x08, 0x00, 0x0c, 0x00, 0x10, 0x00,
  0x0e, 0x00, 0x00, 0x00, 0x10, 0x00, 0x00, 0x00, 0x01, 0x00, 0x00, 0x00,
  0x1c, 0x00, 0x00, 0x00, 0x2c, 0x00, 0x00, 0x00, 0x04, 0x00, 0x00, 0x00,
  0x01, 0x00, 0x00, 0x00, 0x40, 0x00, 0x00, 0x00, 0x03, 0x00, 0x00, 0x00,
  0x01, 0x00, 0x00, 0x00, 0x0c, 0x00, 0x00, 0x00, 0x63, 0x6f, 0x6e, 0x76,
  0x32, 0x64, 0x5f, 0x69, 0x6e, 0x70, 0x75, 0x74, 0x00, 0x00, 0x00, 0x00,
  0xfc, 0xff, 0xff, 0xff, 0x04, 0x00, 0x04, 0x00, 0x04, 0x00, 0x00, 0x00
};

unsigned int model_tflite_len = 12384;// Fill the int in `src/model.cc` here